504b 0304 0000 0808 0000 0000 0000 0000
0000 0000 0000 0000 0000 1000 1200 6172
6368 6976 652f 6461 7461 2e70 6b6c 4642
0e00 5a5a 5a5a 5a5a 5a5a 5a5a 5a5a 5a5a
8002 6363 6f6c 6c65 6374 696f 6e73 0a4f
7264 6572 6564 4469 6374 0a71 0029 5271
0128 580d 0000 006c 6179 6572 312e 7765
6967 6874 7102 6374 6f72 6368 2e5f 7574
696c 730a 5f72 6562 7569 6c64 5f74 656e
736f 725f 7632 0a71 0328 2858 0700 0000
7374 6f72 6167 6571 0463 746f 7263 680a
466c 6f61 7453 746f 7261 6765 0a71 0558
0100 0000 3071 0658 0600 0000 6375 6461
3a30 7107 4d00 1674 7108 514b 004d 0002
4b0b 8671 094b 0b4b 0186 710a 8968 0029
5271 0b74 710c 5271 0d58 0b00 0000 6c61
7965 7231 2e62 6961 7371 0e68 0328 2868
0468 0558 0100 0000 3171 0f58 0600 0000
6375 6461 3a30 7110 4d00 0274 7111 514b
004d 0002 8571 124b 0185 7113 8968 0029
5271 1474 7115 5271 1658 0d00 0000 6c61
7965 7232 2e77 6569 6768 7471 1768 0328
2868 0468 0558 0100 0000 3271 1858 0600
0000 6375 6461 3a30 7119 4a00 0004 0074
711a 514b 004d 0002 4d00 0286 711b 4d00
024b 0186 711c 8968 0029 5271 1d74 711e
5271 1f58 0b00 0000 6c61 7965 7232 2e62
6961 7371 2068 0328 2868 0468 0558 0100
0000 3371 2158 0600 0000 6375 6461 3a30
7122 4d00 0274 7123 514b 004d 0002 8571
244b 0185 7125 8968 0029 5271 2674 7127
5271 2858 0d00 0000 6c61 7965 7233 2e77
6569 6768 7471 2968 0328 2868 0468 0558
0100 0000 3471 2a58 0600 0000 6375 6461
3a30 712b 4d00 0274 712c 514b 004b 014d
0002 8671 2d4d 0002 4b01 8671 2e89 6800
2952 712f 7471 3052 7131 580b 0000 006c
6179 6572 332e 6269 6173 7132 6803 2828
6804 6805 5801 0000 0035 7133 5806 0000
0063 7564 613a 3071 344b 0174 7135 514b
004b 0185 7136 4b01 8571 3789 6800 2952
7138 7471 3952 713a 757d 713b 5809 0000
005f 6d65 7461 6461 7461 713c 6800 2952
713d 2858 0000 0000 713e 7d71 3f58 0700
0000 7665 7273 696f 6e71 404b 0173 5806
0000 006c 6179 6572 3171 417d 7142 6840
4b01 7358 0600 0000 6c61 7965 7232 7143
7d71 4468 404b 0173 5806 0000 006c 6179
6572 3371 457d 7146 6840 4b01 7375 7362
2e50 4b07 0830 46a8 e6d1 0200 00d1 0200
0050 4b03 0400 0008 0800 0000 0000 0000
0000 0000 0000 0000 0000 000e 0033 0061
7263 6869 7665 2f64 6174 612f 3046 422f
005a 5a5a 5a5a 5a5a 5a5a 5a5a 5a5a 5a5a
5a5a 5a5a 5a5a 5a5a 5a5a 5a5a 5a5a 5a5a
5a5a 5a5a 5a5a 5a5a 5a5a 5a5a 5a5a 5a5a
5b16 cfbe 5ba0 77be d3af d93d 6fa4 4fbf
252b 053e 0e30 2f3f 7fab 64be 2218 8e3e
e0de 353d d79e 20be 1135 81be 5a6b c2be
420e 5a3e e975 5fbe 9bb1 923d 658a 08be
cbe6 333e d5ad a5be 1ed3 8c3e 271e 67be
fc75 2f3d c0a3 4cbe db8a 023f eacf 1bbe
a411 bcbe 9750 a43e dbdc 9cbd 8438 98be
924e 533e 4e7e 313c 5249 7c3e b678 193e
59dd 1e3e beea a03e c300 2b3f f5c2 1a3f
30e2 013f 1f09 083f 62da 25bf dd7f 343d
905f b93d 57f9 a63e 3ee1 bf3c 123e ff3e
a013 cebe 9b73 883e b90f 9fbe 4a4a 79be
7503 ffbd c9fd 5bbe 2a58 61be 00d6 2a3e
eb0e 733e 6172 9c3c fe53 00be 5b98 2cbf
7c9a 083f 7f6d 2a3f 622f f53e 5b18 1e3e
fa7b 1ebf 4c04 92bc cc4e d7be ad14 22bd
f333 e63d 32ab e8bd 3638 5b3d a4bf d63e
7732 d1be 0da5 39be 169e c4be 6a0e ab3e
e773 943e 6673 92be 4c1a 053f 4a77 a93e
b96d a53e 2647 6a3e 23c2 89be 2aae dd3b
71dc 2a3d fd7c 8ebe f4f1 64be dfb7 7bbd
e355 9ebd 79fa 79be 58c2 b6bd 4dcc e03d
f45c 793e 91a3 aabd 4de9 083e 072d 72be
601a 74be c434 853d 8830 dfbd 6922 0f3e
dcee cbbd 7be4 3ebe 603e 98bd 61cd c3bd
3ec8 673f be64 f53e 6d05 053f 6cac c0bd
21ce 763d 1997 c6be 056a bc3e 1c3d a93d
20c2 a73e e9b3 ab3e 10fd 25bf 5137 43be
fef7 273e 0fd9 153f df29 0dbe 4345 c43e
5e3a 3f3b 0152 be3e 0e5c 87bd c7c7 bd3d
909c 583e 56fa 5fbe 0f93 65bd 3bb1 d43d
b26c adbe 270f 12be d182 48bd 3cd7 2c3c
dbb5 133f 965b 5bbe 29fa 11bd 3a64 3c3e
33ba a63d 283a 6ebe 083b 51be e971 6a3f
7cac 563e 4716 ecbd 6e59 3cbe bbc8 15be
1478 1bbe ec38 1b3e 9467 153e b207 eabe
8ca0 d13e a057 773f 020c 823f e6a7 63bc
84ba 9c3e 4277 3abe 4a7f fdbc 61e1 5e3d
8002 3bbe ec4a c9bd 7ec6 3abf 9322 2b3f
7c45 583e 909c bdbe cb4c 223e 12e6 c43e
3136 69bf 82fa 25bf 00d4 2f3e 4cf9 953e
06f0 3cbd 70e8 fbbd 77ff be3e 13f8 1abe
6b5a 0ebd a94e a13d 6eef b6bd d405 89be
c0aa 70be b1b8 0bbd be64 7cbe 92ad 203e
e677 c3be 2f77 413f c207 093f 8fe1 973f
6374 8abc d0a3 b2bd 79e9 b5be ebe5 8c3e
0b0a 613e 873f d9bd db9b 8c3e 8ec8 0cbf
1e11 f03d bfe1 473c fdc2 80bc dd29 d6bc
8bd7 163f a1c3 58be 1bc2 853e 3309 6dbe
af86 32be 7e78 a9bd 90e9 08bf 3331 a63f
9b59 c43b e1aa 893e 2a9c 4ebe c7db 59bf
5496 f43e 9e0e af3e 294a 893f 3d0e c73e
8643 ad3e 9098 3fbd 060a 1bbf 1bcf e93e
8fc5 d5be 14d5 4d3e ab32 373e bd0e 3cbe
31a6 793e ef16 1dbf 1629 3abf 5abc 47be
5fd6 73be 7085 863d aa9f 703f b6ac 49be
b12a 02be 5170 93bd cc78 6dbd bef6 b5be
e90d 833a 1169 813e ec06 50bd 1b8c 693e
9e2b ab3d 5722 483f 8ccd be3e 285d a53e
4c03 25bf 0b77 89be 1da1 333f d7b9 acbe
345e 75be 3415 aa3e 389d 89bb 4f68 ac3e
e1b3 a83c 7d8b 33be 74cd 1fbe e580 e1bd
40ec aabe 0874 85bd d0ea adbd 9249 303e
f867 f6bd 1b8c 85be 8cfa ce3d c55c 99be
3eab a7be 6c02 64be 3ad0 133d 89a0 02be
faad 89bc 5347 a63e d147 d8bd ff7c bdbd
ff4a 02be 0a9f 30be 5d8f f9bd d359 0bbf
a985 52be 8d91 573e 3642 cbbe eed7 9c3e
7095 893e cfa1 673e e217 993e 9a2e ef37
0e9e 4f3e f2ca 213f ec33 273f ffb2 273d
20b0 5dbf 77b5 933d 55ee f5bc 2d89 433f
9999 cb3e 0819 ae3f c337 09bf 553f f2bd
aaa0 0bc0 e679 833f 96f6 9ebe 009c 61be
2dd6 223d a592 23be bacb cc3e d14e 643e
b530 173e 80c9 a13e 796c 273c be34 a6bd
ce22 a03e 9da1 693d 2e2f a23e 502a 123f
2222 2d3d d445 063f 6a21 7c3d 608c dc3e
efdc 32be e5f5 3dbd 1535 5cbe ac02 40be
804a 03be 3227 86bd 01f5 5fbb 1dfd 9dbd
809b ae3e 435e e63d d0c7 24be 4f10 fabd
be78 60be 33fc ac40 9e92 aabf 8f7b f9bd
4e21 463e fd5e 51bd 7787 50be 5d2c 123e
af83 0ebf d549 543e 904c 863d ed13 ef3e
297f 363d 13c1 103e 7f02 babb ddf1 24be
eca6 22bd a029 36bf 832f 593e 6a54 ca3e
db60 e7bd bfc8 f73f b0e0 a6be 0bb5 5d3e
be14 1040 4ce4 223e 7aff 0bbf b16b a6be
4254 48be a4fb 5f3e 76e0 6dbe 4e67 41be
9084 e3be 7c5e 45be 0dfa 1e3e 60f2 a7be
ef85 00bd 764a 143f 7d18 45be e417 c03e
3238 1ebe 5f5c 863e 0274 a9be b652 d9bf
9512 cb3e 7551 7dbe 60c3 1540 f1c5 83be
70e1 90bd b428 173e be3e 5fbe 6a99 9b3e
7a91 513e 8239 c03e 3063 eb3e 0a71 a7be
cc24 9cbf 434f 833f 5011 72ba 56ef b2be
2984 193f e1b0 e93e 7424 d33e cdd9 223e
cb67 9cbd 7eb9 b03e f0b6 70be 4f20 17bf
97eb 793f eb64 9b3d b812 e13e 5222 d03e
2cef 6d3e 9d24 91be e50d 1c3e 30ef a7bd
6d3f 0bbf 4ebd a0bd 408e 2bbe 8c8a 7e3b
7935 c3bd 0b0f 7e3e dd4b fbbd 05ed 833e
33f5 3d3e 5fd4 debd 2388 f4bd 2398 91bf
498c 453e f2c3 c33e c502 b33f fa08 753e
3588 5d3e b4a1 203e 3772 383e 7680 6e3d
318b 19be 1850 59bd 2f6e efbe a45f c33d
56d5 0abe 842e 283f 3251 51bd 98bf 10be
ed92 733d 257b 723e c721 963e b002 e1bc
0f14 463e da13 aa3d 2014 9dbc 0262 9abc
3bbf 9dbf 8fc6 803e 85ec 203e c07f dfbe
6c34 c2be ad1a e4bc 021c b23d ac11 17be
c77e 08be e9e2 06bf e940 c2be c78e f23b
99a2 293e 82cd 393e 1e12 5c3e 1fd9 683e
276b e0be e221 383e 63e1 d8be 819c 5a3e
34e5 13bd 8db6 113f f4f4 44be f35f 153f
1b3b a6be 0886 b53d 5335 353f 7e23 b3bd
aab6 07bf 02df c33e caae b5be 4366 fdbd
c8f1 92be c00e 783e b3e0 643e fd53 5fbf
6ca3 f73d 4353 6cbd 4196 c03c 8bd6 90be
26af adbd c8af 87bf 3fdf 303d 8faa 1c3e
d92e 9bbe 4266 1fbe 69f7 da3e 29e1 ccbd
a01f d73e cab5 f2bd e008 8b3e be56 0c3e
fe49 0d3e 3781 de3d 06ce ef3d 5091 cc3d
e4f4 babc 919c 88bf 71c2 00be f073 993e
826c 973d f29a 41be 9696 90be 9d10 a13d
ee95 39be 4fbe 383d 2371 0bbe 1ddf 17bd
273a 963e 2da5 63be f04c 87bd d84b 50be
d6af dcbc a65a 9a3e 6dea 483e 75fd d93e
733a c1bf e548 443e c424 97be b03f 6cbe
3304 c1be eda9 cfbd 15b8 01be 9823 153d
d718 b83e 09ba 57bf ae5c 8a3d bb1d 25bf
0973 91be 428f dcbd e68a f1bd 160f 813e
0654 67bd 99e7 1c3e 431d 663d f5fc 1fbe
fe16 2c3e 67b0 383f 2780 7b3f d8ba 93be
53e4 cf3d aec3 09be 8691 dd3d eddb 943d
ce1d d63e 2fc8 efbd 3533 2a3e 3d56 e4bd
e23c bebd 15eb 26be 1119 4a3f 26d2 dcbd
6b85 933e e2f1 15bc 151a cebd ee49 1f3d
32c8 883e 7253 5abe 0033 093f 386c ecbe
80f4 82bf b8ef 8f3e 4e91 e23d 4407 40bd
e687 773e 5bd4 1c3d 8410 d33d fca1 86bc
05f8 8bbe 29a6 06bf ebcc 5dbe 932c 0cbe
1a7f a03e 8609 55bd b1bf 0a3f 2bc9 00be
e193 a43e f48f eb3d 54d6 3ebe 4826 933e
44e4 0c40 4b63 b2be 52cb 05bf 0fd3 0b40
2757 6fbd f610 4ebf 0d7d 873e 391e 6f3e
6825 70be 1689 e13d ffcd d73d a38c 7bbe
0fac 283d 7bf5 2cbf 722b af3f 2521 2d3e
19e1 aa3e cb7c 75bd 7976 e5be b369 e1be
d5ba 83be d7da 42bd 3511 9e3e 93dc f5be
9b68 cf3e c74e 213f ddbe 183e 8701 113f
d8b7 5c3d 0d22 053f 8a4d 8dbe e9b8 02bf
78f8 94b9 9fa2 c73d 7b0d 573e 76fa 923e
f615 d33b 5a8a 34be 52c3 5d3e 9f27 20be
7bbb 1f3e caf6 4fbe 3a33 3d3d f540 81be
ddb6 a5bb b2c4 eb3f 1e19 f0be c89c 2a3f
f47f a6be 4dcf 42bf 5b8d 6abc 9fd0 16bf
92d1 933f ee4a 3f3e c9a0 d33e 981d 08bf
0272 03be 7f47 5abe f456 27bf ace6 0c3d
184a bd3e aea8 40be 988e 343e c544 d93c
a1b1 25be 485c 02be d379 b6be bcd0 02bd
d2a3 87be d04d 6fbf 12cb c4bb 1384 fe3e
7708 f3be 91ab b23d 1d1d cc3d 9cfb 263e
4643 95bd bb6f 1ebe a9c6 a3bd a107 02be
f0fa e03d 3244 0abe 9333 653e d358 61be
5256 243e 4c45 3e3d 8bc3 773e 2dab 1f3d
e3da 993f d489 763e 2c87 953f 951b 163f
c02f 0cbe 9326 363f a6d7 763f ec71 98bd
4f43 a73e 204d 27bd efcb 883e 20c6 97be
d6df 973e e1af 5b3e 6c3e 843e 2dc0 fa3d
8ae0 16bf d0b6 80bc 1d1c 253e 12ed b33b
0427 123e 25f8 cdbd 73d4 91be 35e3 903e
c08d 00c0 ccee 2cbe ca19 6abe f277 f1bd
6de4 fbbd 176d 4dbe e6c4 16be dd46 47be
817b 803e a211 263f cd83 053f 1d34 3cbf
b410 713e 33a6 2ebe 9224 ddbe 2d8f e63e
9e11 f93d 6b43 24bd 2b10 3d3d 3bb0 ff3d
4b73 5ebf db0f 073e 7377 9d3e e147 6cbf
abd2 993d 2d5d 3b3e b0ff f0be 20d3 1d3f
0512 973e b7cc 593e 4803 9e3e d875 88be
63cb b93e dd69 2e3f c36e cabe 9a65 243d
2881 883e 8959 73be 8376 d83c bf48 0b3f
344f 143e 8e45 8d3d f960 b93f b074 18bf
4484 61be 1d45 5240 d6a6 3f3e 1a0d 35bf
0125 a1be 8ddd afbc 5e76 0d3f 1736 203e
2d81 e2bd 8054 01be 49ce c03d 54a1 163f
b45b 82be c24d f53d 43d0 a03c 605a 9cbe
0399 9d3d 7038 c53e 0276 373d 6882 953e
f653 d9bc 4248 03be 6a2f d93e 005a 26bd
a05b 123e 66fd 63be 21d2 c33e 7165 bcbe
f017 debe 9a5d 123e 2f57 f8be de2f a7be
af39 db3e 0554 943d 56b3 4f3e dda4 c0bd
7176 903d 5372 99be dee7 153e 5295 d33d
ede6 03be 7861 21be d8a1 40bf 8a23 0c3f
a67b b13f c91d 93bd 99ce 623d 8d1e f3bd
2b86 c33b 7478 cdbe e1cc 433e e176 153e
2133 b9be db34 c53d b62e e23e 8a09 d13b
b568 953f ff0a 85be a3c3 0bbe 3eb8 d3be
4f0e 91b9 439f 483d a7b3 883e 358c 473e
c513 9fbf cbf7 7b3e bf81 b1bf 3e9e d73f
73ef a0be 5c60 ccbd 2df7 863e 1167 d93d
3ab1 f53e 471c a63e ea23 1b3d 7b9f f93d
5248 03bc 1430 823e b5b2 d2bd 6b21 0abe
90bc 153e d464 c7bc 0d3c 723e f18b 84be
e4a8 87be 86b8 7fbe e6b6 13bf f443 debc
a2fc 263e 742c 4d3f abc3 683d 8f50 05be
5b64 183e 5227 86be 42b7 843e 1b6f ab3d
2c72 473e 5211 82bf 08f5 9b3e ca8c 9f3e
0ad5 f4be 987f 6a3e b93e be3d ad03 42bf
3a68 493e d313 4e3d 397a 8c3e fff5 ab3e
402f 65bf 655b f1bc 068d 81bd 5ed1 68bf
860b 18bc ea8d 7a3e c46e 88bd c523 883e
e840 8bbd 27e7 473e 3117 94bd 69f4 74bd
3ec6 eb3e 2d1f 1b3e c52d 3f3d 064a 7fbb
4782 223d c797 9dbe 4f28 48bf 5236 b33d
8d06 963e 6fd2 3c3e cd31 4cbd 05b4 313f
273d 993e 436f 00bf f8c2 873e 7beb 62be
640a bdbe d216 973e c258 923d a630 9abd
2316 083e f4c1 e33e 9e60 5a3d 1277 24bf
d4ad 623e f43f 81be 3bec 903e fa37 973e
004b 723f 9bf7 49be bef4 f03c 4f4c 943d
562a 84be 28e4 2d3e f8e5 1c3e 9965 46bf
8e10 29be 6561 543e 15b4 18bf 9655 763d
7d68 943e 2eee 103e 2827 c13e 805b 4f3e
cdbf 313e a18c b3bc 4fea 713d be0c 49be
d532 3bbe cc49 5bbe ba4c 2fbc 8bf7 ea3d
eadf 36bc 4d4a 173e decb d73f 9911 b23f
2f23 06c0 6957 073f 3707 223e 301b a13f
6c77 2540 e23b 2b3e d161 203f b3b5 ea3e
037c 3c3f da12 94be 896c 683f 9a70 963f
ae23 a4be 219c 713c b851 21be 9b34 cabe
ad76 ad3e 294b 5b3e 5b58 72be e41e b53e
1118 e4be afdc 893d cdd5 563e 4073 bd3e
c48c ac3d bae1 8fbe 7f62 0e3e 2942 0f3e
1615 843e ad0d 903e 753d 59be 94e8 713f
ea12 0fbf 2d0c 96be 8866 473f a60b 993e
b784 703e 4ea0 aa3d b169 60be 228d fc3d
35e6 f73d 58fc f3be 54e5 713f cbb5 2940
55c3 48bf 0dae f93f 9649 043f b5fa b7be
807c 9b3f 8d3e 5cbf 7b91 e53f 1f2d 453f
f209 de3f 46f7 27bd ff9b d33e e796 263f
0832 13bf 9f4e 723e fdad c7be c647 a2be
5e05 013e 360d 023c bdde 3bbe 9887 453e
f25a d2bc 380d 093e efd0 8540 da13 3c3f
fb79 1c3d c1fa 223e 9ea2 4c3e 2d56 a1be
6f79 163e 0560 133c 1337 adbe 86f4 df3e
bc70 37bd e0cb 063e aad1 5f3f 57fc ddbc
bf12 2dbe 8525 d23e 4410 193e 0522 333e
9933 ce3d c466 3fbc 88e6 cfbe 75ec 03be
9b68 73bd c7c3 223e 723d 6dbe f769 af3d
66d8 f0bc 5124 7bbd c0ec cf3c ceb3 3bbe
ce82 873d 062a 19bf d8c0 cc3e eb9c db3e
36d5 6c3f a50e 083e 11b7 a93e 99c4 6abe
52f5 9c3e 1ac9 b4bc 387e 8bbd 4636 8f3e
9ddf 90be 5572 a03d 2e87 ebbd da15 71be
6b99 9abe 0947 1ebe a155 4dbd 982f 2cbe
5f93 67bc cf33 10bd faed e83d b04b 7cbf
d6bf b63e 8269 2f3f d1bd a23f 7f92 193e
2072 21be f696 633d b952 7b3e 60f9 723b
6421 033e b9b4 74be 0daa e83f 7e2f 1d3f
7812 14c0 83e5 b53e b3bb 713e b99f 08be
fc1b 793f 9a9f a1be 37f2 ad3e aee1 13bd
f774 503f fba3 67bf 44f6 f13e 324f 493f
4b77 893f fa9b 0fbe 7445 ecbd 57c2 dabd
eaaf be3e ff6f 603e e4a8 17be 21d5 9e3d
dae2 d33e 8f4d c13e 929f c83f 0f8d 173f
69a4 8d3e 72c4 4e3d 7a0b 8cbe 3a3a f43e
c1dc 573f 0445 a0bf 7776 2b3f 3bcd 91bf
bda5 19be 870e c3bf a789 b3be 4b47 6fbe
86c2 a1bd b985 a73e 0575 5abe 2a02 14bd
c60f bf3d e3b8 323e c8e3 c2be 9ecb 643e
186d aa3e 3f30 b3bd a419 29be ef10 76bd
edac 583b 2822 9a3d 97b4 ba3e 3204 1c3e
584d 1dbd ad5b e7be 512a e13e ce8c 163e
7ce3 ebbd 3cbb c3bd 04c1 48be 0757 84be
6cf5 693e fc60 f53e 0609 033c b03f 023e
161d f6be 640b d43e 0498 023f 906c 95be
8c17 d93d 50d1 803d f770 13bf e12a 5c3e
8a0e 0d3f ea86 3a3e fb89 f13d f43e 023e
f85b 243e b0c2 913d 9f11 e5bc d247 093e
f73e 203e 3066 2bbf ab85 0dbf 126a 3cbe
57ad ef3d d327 453e 0a09 5a3e c714 943e
3b4c 45be 4b33 3c3e c319 9dbd fa79 7abd
7f99 d6be 7bf8 88be 6923 683e 6f08 e93d
5425 63be 861d 723e 6822 81bd df18 14be
3869 2dbd 1ff8 22be de24 703e 3ccf 71be
d613 833e be70 403e a471 2dbe d31d 00be
e3e0 8fbf 6224 b43d b161 0c3e ef5b 25bf
4a6c 113c 1c6b 2cbe 03ca bbbd 24e9 8b3e
2e5f 72bd 33b6 c73c 8848 9f3e 18ae bb3e
6c49 543f 6414 533f 7c44 e5be c344 3b3e
8060 04bf 05e1 d7be 48ee d43d 2393 d03e
0601 f13d c9c6 cfbd 3626 b4bf f101 dd3e
b91c 173f 9e84 8c3f 76a5 07bd f616 353d
eabc 223e e9eb e23e a555 b9bc 5616 ea3d
ed81 5abd 2e35 73be fe8e 6d3d d3d4 16bf
ff47 a5bd 45c1 83be fef4 033b a0ff b7bd
eeb8 253d 69c2 9abd 8643 1c3d 9feb 643e
ab93 8abe 165c 0a3e 65b6 503e 6648 403e
6dd8 1fbe d55e 87be 4548 1cbe f39e 66be
98f7 0ebe 387d 9c3e c76d 05bd ed4a 96be
01d6 d2bd c374 13be 21eb 3cbe 9a18 943e
6b90 4a3f a41f 15bf d908 c93e c631 803e
87cc 5d3e f085 213e 1145 98be 86c8 673e
c9a5 e9bd 1473 823d 51c5 93be 3264 3dbd
ca40 01be f90e b83d e66a 503d 84f5 b9bd
f781 053e 3262 e3be c85e a53e 2b48 6d3e
1da4 123f c8e2 75bd 7187 36be 62b7 d6bd
019f 593e d591 2abe 0c1b 26be 4ebd 0c3e
183e 5bbf 0735 8c3e 496f 843e e2c1 143f
46bb 943c fedb 113e 1d80 8a3c 881f bb3e
d9bd 8d3e 87eb 67bd 8b4f 893e 2c22 603f
b398 f9be 888c 24bf 7b2f b23e 160a d73c
f02b 3fbe 8098 a33e dfcf c63d 5080 523e
3641 26bd eb87 e3bc 28d7 113f 266d 16bf
8ecc 83bf ac9f e03f adec cb3d 914b 853f
803c 873e ff51 d03e 81fe 81be 6b2d 69bc
6d7e b0be c966 1dc0 96cc bdbc c647 d7be
77dd 0fc0 f308 893e da5b 753e be15 313f
eff4 30be ba6a 4c3e 1af7 a3bc a684 e6bc
917b 17be 8523 873d f7a6 4e3d ecd5 3abf
8415 873e 9e25 5dbd f51d 01bf d813 0abe
245a 3bbd 7f6f ee3d a108 12bd 2621 263d
cd0e 4bbe 0cfa 2cbe 237f d53e 6308 503e
0261 92be bb0d 593e 529e 02bf 3f30 24bf
19d3 2dbe b7d6 253d 1730 613e 64df 193f
895f 343f 51a8 bebd 0ce9 15be cb45 cdbe
12cb b5be 5954 693e 7ef2 8e3d dbaf a63e
1e61 283e 2556 7dbf 3ffc 953c 0d05 fa3e
721f 32be 8cee fcbd 4fc2 03be bd00 aa3e
3dd2 1ebe 80ad 47be fa1d 473e 9fcd 61be
9c4e d13e dbc9 21bf 7959 fbbe 6e8b ea3e
4088 6d3c 6d7f 863e 8f60 8b3e aab4 f93e
d654 ecbe 8091 5c3c e55b 8bbe f9e6 26be
6787 7c3e 9c6b fd3e 3514 36be c87b 1c3e
458b 293e 0b08 a53b 1595 f53d d95d 1f3e
7e43 96be 21f7 78be f955 ccbe d7f9 573e
7e47 733d e2e2 553e ac71 0a3e f83a ebbd
486e eabe 020c d4be 5760 5d3e f693 debd
a3bd 2e3d 2177 c4be f867 173d f3bf 0b3e
ef00 a23d f2b0 27be c0f3 5a3e 8ca7 ffbd
780c b03e 55bf ae3c 0883 543e adf6 993e
43c4 19be fceb 193b ddfa 08be 8985 c2be
c74d f5bc ec2f d93e 44b3 b8be 5e07 113e
e52b 9f3e b0e8 cabd 0c65 b03d e07d d9bf
6ae1 833f 3cf6 39bf 45b7 9fbe 0064 4b3c
b4d9 be3e 1257 00bf fe8c a43f a97e 1c3f
86a3 703f 5c86 21be 77af 61bf 2676 fe3c
225f 4fbe 13f3 3dbf b588 c63c 8571 63bd
f54e 45be d2d3 39bf 798d 31be 6c47 0f3e
22a7 7d3e 66f0 4cbf 9381 83be 3526 d63c
2cd8 5fbe a423 4f3d 4679 f53e 2127 c7bd
1367 493e 12e1 133e 3cd5 813d b3ad 50be
c7f7 b03f 7d98 f6be 4325 11bf 8210 a83f
1ff0 643e 871d 6d3e 6cb8 94bd a3ff 03bc
be0e 34bd 05cb b6be 8c26 78be 4b8a 403e
685c aa3e 2820 d03d f4a4 ee3d dc02 043f
1451 73bd 122a 99be 5916 f53e be34 90bd
ac36 253e 9a2a 8abd 6833 0f3f aef8 073f
22e9 953f 81f0 35bf 3547 233e 1ff0 83be
60fc 8dbe 307c 8a3e e315 883c 1f47 cb3d
eb76 583e d43b 453e 5a1c 1b3e 44fd 9b3e
4e5a 183e c072 cfbb 67f8 963e a5ea c1be
0460 ba3d f903 15be 50c7 023e 1905 6c3d
5f5f edbd e401 85bd c304 0f3f 1e61 0d3e
853c 40be e585 98be 3e51 8abe e4d9 b43e
385c 723c 0ad4 ac3e 157c d33e 041b 003e
1cf7 90be 89c0 a43e 4382 81be 8336 2abe
fc68 39be ef67 77bd 2176 04be 88f7 8bbe
a6b9 3d3e 6733 833e 2278 11be b89c db3e
e3ee aa3e d45a 3bbf 9e3c f0bd 9353 783d
090c fcbe b25d d03e 2975 7b3e c1d3 953e
7abb 903e 7f09 cebf fbfc f03e 0060 573f
9c89 2f40 b51d 1d3e 4a05 b9bd 4a92 f53d
320c 18bf 960c d03e 50a5 fc3d 86c5 4fbe
8633 81bf 0893 e23d 25c6 b5be 30b6 6fbe
e890 6d3e 9355 0b3f 8491 973e 6064 5cbe
08ae a83e 147f 6c3e 3294 673e 61b9 07bf
0618 863d 8577 29be 5607 a4be b1c8 263f
7b1f bfbf 7b4b 40be 5058 233f bf99 cabc
348d 4bbe b232 92be 8b3f d7bf da3c 8c3f
507f cc3e 165a aabf ad15 c33e 4efe e43e
5e05 833f b618 fa3f e1a1 103f d8ca 073e
d16d 593d ae72 56bf 2973 4abe f699 6c3e
398a c93e 994c 74bc 5345 7e3d 597d 603e
0484 9d3e 1dc6 75bd 3cf3 293e 82de 81be
0f4b 1fbf a77f b03e 4040 f93e 8eb1 34bf
0cba 2abf cfbd 13bd 36e8 44bd 659e d9bd
1007 b33c 8691 993e b1a1 c4bd e830 72be
6710 aa3e bcfc 8b3e 4cc2 7bbd a207 2e3e
6c13 083f 3d4c b1be 7567 3dbf 841d d0bd
ebd2 afbd d896 933d e42d 063f b639 d8be
37e4 823e 6e0a 3d3e 8565 f83d c2f9 62be
796f f8bd 6616 a0bd f8b9 cbbe 5f17 cebe
01dd 0bbe 1165 2a3e 9e45 9c3e c795 e63e
7900 6ebe b6bc 7b3e 87f8 23bf 7b9a f13e
c43f d53e fb18 a5bc 552d e7bd da4e f03d
c4a4 4dbf 20a3 cfbd 5f04 463e 1e6d 8bbe
1f08 25bd 8e54 093f 9d31 4ebe fb25 a03e
362e a53d b84d d0bd 7456 1c3e b6f7 c83c
770c 3dbe f422 553f 67ed c23e 9b93 88be
1bbc 4abe 9803 7ebe 1a29 f7be 82bb b03e
e33a 5e3e f675 a53d 7007 203d 1599 53be
c62e 7fbe c199 053d 2c8a 133e 507e 013f
9de5 dcbe c093 82be ccff a33c 16b4 8cbe
3058 77be 9d38 2fbf 2c34 353f f594 0e3f
e6e1 33bd 8347 8a3d 9e1e 033f 9719 9abe
32d3 163e 921f ac3d e98e 8a3d 3ac4 ccbd
6036 adbf 267c 4e3e 916b dabe a20e f23e
9574 703d fad9 413d 4e51 733e 660d 19bf
121f 943e 5f10 143e a4f5 8ebe 7dbe 76bd
bf27 3a3f f39c 80bc 0964 1b3e 20d2 453e
3e83 93be b045 bf3d 3a06 a8be 538d b33f
496f 273f 751a 303f b587 59bf 40e0 d1bd
1b88 76bd 7461 0dbe 7d6d 18be efa0 373e
2455 5cbe 4e33 e83e 2385 8b3c 8a3e 833e
9299 9c3e a711 d63e b253 1abd 2afd f2be
81b4 a33f 3425 873d 06b2 073f 252f c53e
dd93 953e 0910 5fbe 8115 5d3e 40ed 3cbe
9734 043f 01ab 39bf 324f 84bf c378 923f
4f74 473c 58bf c23e 3049 8e3e 2dce db3e
ca6e d8be 0291 1e3e 3cbe 93be 3650 25bf
ed12 9b3e 827f 843e 3f5a 59bf d9fd 233c
4f22 ad3f aa61 00bf 9d4c 833f ff87 ce3d
fc6d c43d fa04 2b3c c084 9d3f c7c1 0a3d
6a39 063f 3565 c03e 9604 4f3e 3b1e 6bbd
8592 873e 2eb6 1ebf 921c ba3e 78ef 003f
bac7 1e3f ca98 a73e 4ba5 4e3f 8a06 aa3f
7bba bbbe 5816 96bb f3cb 37bf ada4 23bf
2bfc 5a3e 6c8b fe3e 7ad1 18be ab8d a93e
5f36 ae40 6b7b 21bf d2a6 92be 93a7 4040
c386 5abd c83b 55bf 129c 3abf 65f7 693e
e0dd bebd 4618 9b3e 95b6 4bbe 3324 a4be
ac21 323f fbd3 133f 6ba9 213f 1f0f 1cbe
1bbf 01bf 71e6 74be 441b 713d 82b3 163e
b981 443e 30c0 963d 683b d7be 165a b33d
d9df e3bc 2215 f13e aa55 233d 8399 b53d
e708 0abd 34be f03d 9b95 9d3e 3465 02be
73e9 e1bd c765 8fbd 6c48 473e f114 043f
25f5 e13b a3f1 053f c1d2 0b3e 0dc1 76bd
62da 0f3f 2a97 16bf 7be7 9abd 7db5 05bf
1a57 2bbf a12d 823c 73ee 5fbe ea9d 95be
3d02 323e ee3c 883e 5667 d5bc 2cc3 003e
8ab1 b2be fcb7 96be 3313 1ebe 581d 7cbe
3197 e73d cff7 22bf 57af ac3e a88f 2fbe
79a5 48ba 2e36 35be a014 6abe f9b3 653e
c857 843d 5285 6fbd c3fb 04bd e81a e53e
8ed8 1240 219c c0be 6602 ae3e 683a b93e
4874 12bf 6623 5bbe 144a 5d3f 988b b4be
17fa 93bd 0d02 913f f1dd a63d fef3 c23e
0e11 903e 11ac 21bc 2658 b33e c4c2 8f3f
db0e 913f b9ab 073c a7fa 8dbd 003d a8be
6b8f febe cbeb 51be 8a97 83be cc72 babd
a49a 4fbc 5f2c e23e 083f 12bf 002c 9c3e
d7d4 5cbd 47c8 993d d3ff 093e 1a6d 95be
6ac0 08be 25b6 0a3e 6c9c aa3e 3731 b339
e151 203f 85b6 e2be e843 dd3d 7600 023e
645d 2a3d d15c 73be fd54 a1be 1dfb 8f3e
8069 e03c 32c1 843f d5f7 313e c5b2 8fbe
3d7c 47bc 16df 693d bdbf a53e 65c5 cf3d
9347 abbc 164a 87be 7e1e ecbe 359a df3f
48df 90bf f02c b0be 65d6 b23e 1353 803e
adb6 32bd ba9b 8fbe 3d91 c4be 00da 913d
ed6c 32bf bae7 e0bb e682 43be 9de4 753d
db68 3c3e 902a e83e 37c6 efbe 39e0 fe3e
69de 81bd bb92 913e ef32 5c3e b340 05bf
c777 813e e65c c43e 7396 c83e 6b5a 5a3e
d9dd 213f 9814 88be a23f f03d ed68 c23e
9a69 9ebe 0c77 bdbd df0c 7ebf 3da9 933f
f484 c03e 7a12 5ebf e096 6b3f a63a 9c3f
975e 3dbe 818e 6dbe a5f4 793f 8208 f53e
c51f 93bd bcf6 e23f 2a92 623f d13b 0ebf
6921 4c3f 053e 50be b350 4a3e 63f6 693f
9a44 febf c816 be3e ac6e 463e 904d 573f
d5db 86be 48a2 7d3e d537 8b3d 4243 a6bd
657d 9f3d 4a60 133f 65fd aebe f50b 283d
1c43 30be 72d1 d53d 5027 20bd e79d 22be
4f9b 73be b107 9a3c 25fb 2d3e 0660 433d
ffd5 57bd 0027 1cbe f695 a4be 941b 2abd
5b97 b8bc e062 3cbe a286 2cbe d0bb 7e3d
02db 8340 56ae 89bd 8a06 eb3d 4ec1 173f
140f aebd 3b76 aebe e5b6 25bd 3980 9cbe
c4a6 42be 95ba 71be 1ae2 13bc 0f26 863d
53be 83bd d3a0 5f3d 906c df3e b4ab 553d
86ca 123f 2f82 cc3c c15b c3bd a5d6 8abd
7ade 8d3c 6d86 87bd 0bb5 f03d 895e 473e
167f 06be 560e 18bd 65fa b83c b0a3 2cbd
6f12 1fbe b895 b3ba d407 f63c 766f babe
f167 903e aa44 c23e b205 d4bd 57b6 083e
34c5 1a3f 110e a7be 96a6 8f3e 02e0 963e
b26f 1abe 1bb1 e13d ee2a edbe 2f3b e33e
ed78 b73d d056 99be b208 6cbe 2cca 20be
f366 e6bd e277 ac3e 9855 833e 4cc3 abbd
f4c8 053c f857 fb3d 6639 893f c177 083f
1173 eb3e 2f12 373e 9f21 c2bd 6491 5b3e
ccc8 173e 2370 e73e 5792 a23e e472 ac3e
43d2 833e 5c84 463e 193f 4cbe e196 01bd
30ce 0fbe 7d51 04be 938a eabd 96a6 0fbc
54a5 84be c98b 6dbd 5ac3 91be 374b 32bf
75c5 0e3d f75e 06be 0e77 11c0 faa7 533c
be04 363f a0f3 35bf 415f 813e 4bc7 573d
e833 2f3f 42dd 0abf 4df7 25be 32ef 8abe
22cf a4bd 4c6d 9dbf de9b d13d ff1b 143f
d000 3cbf f5d5 933e 5fe4 8d3e 1a76 7b3e
3efb f8bc 300f 443f b6a4 b4be 6a7e 793e
8872 383f bf52 d13d 784e acbe 00bd ef3e
78f6 0cbc 08a9 713e e6ef 22be 10e9 41be
5ca0 a5bf 69ae 063e db07 143f d471 4c3f
58b1 173e 627f 813e c4d1 223e db2d cb3e
cb92 9dbd d42f e7bc 552a 3bbd 7a69 fd3e
596b cabe 9ff4 83bf c540 263f e879 70bd
f87f 1abb c667 f63e 2227 b83e af05 3abe
859a acbd 2545 c83c b24d 9c3e ed06 cabe
4f17 8cbf 9711 ea3e d7c9 873c 2f41 79be
6dd5 323f f413 373e b03b 943e 093f b2bd
815a 1a3e bd51 89bf b356 c8bd e630 453f
1eb5 31bd 1ee1 423d eaa6 953d 674a c6bc
a706 c93b 667e b13e 27bf f43d 456a 6f3e
a7e2 9fbf c2b5 75bd 75cf 9cbc d24b e0bd
fa5f 8fbd 03f2 4abf 60ad 363d e486 adbd
6ec1 38be 00d9 0d3e 71a8 343e 85ec 34bf
ca96 7f3e 78cd 0d3f cb94 cc3e 3003 b03d
9632 9e3d ccb5 a839 d2e6 7f3e 4784 8c3e
a239 0cbe 53ba 11bd e5a2 97bc 080d 3cbe
5fe8 783e 430f c93d 48d7 98be b279 92be
b2b5 8dbe 950a 983e 2ebd 7ebe 6180 8ebe
f99b d23c db3b 37bf b5a9 cc3e d6d2 b83e
1fd2 953e b1cb 9bbd 1c48 26be ce89 1b3b
9826 a13e ed3e 0b3e 46c2 12b9 660d 813d
1f34 223f bcc9 a9bc d3a9 b03e 130d a73f
82cf f23b 28c6 973e 4b96 9abe ed8c f93d
1586 9b3c e1ff e5bd 67b1 9e39 fe27 1bbf
6f5a bf3e 48fe 5d3f e7d4 2b3f 2420 a93d
977d a7be 3b3d 89bd b49a 513e 573d 013f
fdf5 72be 0de1 093e 90d9 00c0 4801 f73f
c842 1f3f 8908 b9bf e77f d53e 101e 693e
d8b1 e03f f566 2a3f e294 563f 8518 a43e
9671 fa3e 3b36 1f3e 1a48 b2be cbdd 973d
06cf bf3e c7d1 a83d d497 4c3e 7374 7b3d
555b 283c 481b b7be 15e9 27be 9c05 d33d
5049 f9be 1945 853f b891 b03f 76c6 953d
38bf ab3e 2041 e7be b6a1 883c 007d 44bf
78dc 1e3f 62bd 873d 086d 5a3f 1a7c 70bd
5252 d43e fd71 9940 4887 59bf 8750 f13d
008a 923e 0c69 56bd a2ca b9be bc50 2b3e
f3a0 a4bd 172f 94be 0add 8ebe 7cc3 283f
3b2b 243f 31d2 3bbc c789 f33d f09a 2ebe
e4dc 83be 2810 323e 9487 cb3e cb7d 8fbe
f21a c8bc d9a6 2ebd 73ae d53d dfe3 8d3e
e4a9 14be 4d77 05be 0854 e13c 25f2 b3be
6019 563e 1c2b 6cbe 4a5e b93d cbda 8e3c
662e 69be 7a25 4c3f 4f6f ee3e bb7a 01c0
28d0 103e 4691 5b3e 5825 adbf 8879 b13e
d1f5 593e 69b2 633e 30de bd3e 358b 31bf
c300 373e b1e9 b4bd 81e3 fb3d b6d4 5ebd
e5c0 0b3f b786 7ebe 8bba 8d3e ab36 8abc
6151 323d a6ba 4dbd b6f5 a8bf 368b 883e
28d6 18be d1f9 89bf 7e95 603e 5d6d d43e
4a46 a73d 91f0 2b3e 6cc9 0ebe 3856 39be
9417 3abe a1d1 fb3c de06 173e 57e7 d63d
407e 503e 4f1a 12be 70ad 6ebe 3c4a d9bc
2271 d0bc ee96 033e 65f1 85bd 68fd 80be
5b94 503e 515c 943e 5d11 a2be 085c 85be
0a7d 18be defe 883f dde7 29be 2575 113d
42dd a43e 4a25 403d 8446 303e d9d1 30bf
3c88 323f 8467 013f 30f9 13bf daaf 903d
e0e8 bc3e 390f 69be 543c e0be 2a2a ea3e
086c 5d3e 763f e23e d327 05be dd6f 543d
f7cb 0dbf ac14 08bf c5d9 89bc 47f3 0bbf
c0da 09be 7cd0 0b3e a878 babd bed1 debc
ca82 5b3e 724c 7b3e 0d8d 8a3e 4f27 91be
59da 7abe 0ab5 26be 4ac0 363e 1f29 34be
4c13 083e 26b9 8d3e f7dc 06be 3ce4 68be
a188 acbf c5d0 623e 8837 97bf d61e ed3f
fd7e 2bbe dea3 81be cfb3 113e ddd8 903c
6f2c ec3e 6449 07be 3dac b63e bc0c 82bf
2549 813e 9ffa dcbe 036e 36bf ea70 b03e
ff8e 0d3f e6b5 8cbe 6330 693f f07f 2a3e
e82b b23e 67eb 32bd 9d56 0b3c e1d0 7fbe
5638 ba3e df31 863b 3bc4 233e cd2f 0abe
59b2 fcbd ffcc a7be c95b 003d 5240 2dbd
c731 88be aa04 02bf fc09 853d 8bc7 ef3d
0817 013f 9ea7 25be 5163 abbc 8856 8dbd
4a8a ab3e 39cb e9bd 9f46 473e 7d3d 4d3e
6c80 d8be d20e cd3d 77c2 f63e d479 a9bf
0c33 c8bd 2aa2 7d3e d731 8bbe 2136 363e
51e8 70be e9a6 8cbc f420 973e 0fe4 a4bc
c5ee 103f c334 eb3f 9232 c8be 6639 483d
af35 26bd f14c 06bf a3c4 2b3f e3c1 b13e
94f2 b5be 627d db3e 58f0 94be d15c fabc
af34 8540 b28a 7b3e b281 65be bfc3 b63e
6f06 ccbd 5fd8 94be 3baa 06bd 5fd8 003d
5d46 bcbe 8cf2 39be 6739 9f3e 8e19 6ebe
5502 78be 7a8b 8c3d 84f7 603e c563 32be
9faf ac3f bca1 e23e ccc1 f63e 9980 1dbe
b103 de3c f885 ac3e 835a 623f e834 85be
4ba5 12be 6840 a63d e823 f1be 1772 09bf
4c70 553e ab32 7e3e 2a6b 203e 7d52 a5be
8f1f bb3e 140d 6bbe 28b7 82bd 193d adbd
0071 b8bd 5c54 b2bd 2f4d a53e f9b3 6d3e
a660 1dbe cf93 ae3e 1126 cfbf 467b 2d3f
cd2d dbbe 8b29 2dbf acda f53e 23ab 133f
c9e6 0140 c3d5 a43d 4763 413e 2444 09be
4691 863c 0652 c4be 6d8e 6fbe 1196 0e3d
d303 a1be b2cb 883e 1da8 253f bcbe 4d3e
2913 413f 00a1 b23e cd66 be3e 8964 84be
03ab 9abe 83db 143e 799f 9dba 9824 343e
70b9 853e b627 ef3c ca29 48be 45c0 453e
b359 793e 2400 67bd e471 2d3e a1b7 1ec0
8a0f af3d 0a77 243e dbd1 e3bf 028d 793e
e71f 5c3f 0cb9 fbbe 9259 4abe 7f67 8a3e
f7c7 97bc a0fa 963e 1e1e 5a40 eac9 36bf
aac1 0ebf 1474 4a40 efb8 733e 976e 7ebf
68d6 0fbf 87c8 a33d 65e5 04bf c22d 73be
2ee6 1dbe 8334 233d ceb3 d43f 7cc7 583f
e9a0 333e 7c90 f83c 4ad1 883b f39b b4be
af6b e93e dd9c 893f 361b 513f be5a 633f
c2dd e13e ac76 1fbf 9ec0 73bf c8f7 a73f
db43 293e b1d5 6f3f d2fb a93e 5c19 8e3e
71d7 99be bdd4 783c 2236 c4be 5fbc 593f
277b 963e 0217 4ebf 5354 7abe e659 07bc
22d6 debe db0e f13e 5f8b 44bc e798 dcbc
d6bd e23c af66 f3bd fa7a bf3d fa07 31be
7fec 75bc 0a17 97be b6e9 99bc 77ac 703c
379b 09bf befd edbe 14b9 68be e232 303e
b441 683e 9fcb a6be aee8 8a3e 3c61 17bd
b0fb 123e c486 0fbe 51f2 cdbc 623e c9be
46c8 8dbe 896f 393e fbee ac3d 3657 5b3e
13f7 97be 90f1 9a3f 2d0f 9a3d a320 f2bd
d559 df3e 97b7 cb3b ad41 8dbe e5b9 2e3f
7319 0d3e 9302 9cbe 9c9f 933e ef17 f3bd
646b ab3e a3b8 8f3e ee8e 02be 2f97 73be
b973 bd3c 0f6a 9cbe 3678 6fbe 965b a83e
0def f73d e439 3cbe 9813 1c3f 92c1 debe
3a6c 063f 55ca 503f b25e cb3f 4835 c8be
aebd a7be 0dca f9bd 4258 55bd bbea 2fbf
cf64 8ebe 2377 4abf aaca 923e 9c41 853e
d687 b7bd 155c 54bd 1f7d 13bf 5118 1b3e
bd05 b93e 52a3 803e bf71 6f3e 9e4a 213d
f9c6 58be 8450 913e 5c1f 9a3e 2baa 843f
6870 b63d 5386 1ebd 1964 77be 8626 18be
102b 833e 3c62 693e 9bd4 84bd 647d 32bd
cf59 133f 8193 2a3f c57e 863f 58dd 94be
eebb 843e ff80 c8be fb77 4bbf 5e6d 593f
259d 4f3f f980 0bbe 0595 d33d d78e 4a3d
0b53 2840 8a19 86bf 6e7b f5bd f652 a83e
2aff 093d a871 9cbe f391 8a3d 09f8 e5bd
f855 dcbc 5e6a 04bf 6644 acbc e85f 1b3e
788f cbbd 2342 e2bd 1b4b 923d c01c 0d3e
7a0a 7ebe 10da 1b3c 58f6 ce3d 6f8e 02be
9b99 81bf 49dc 0e3e f928 40be 22ba 5bbf
abbb b43c cb66 183f db5b 3cbe 80e5 60be
4415 6a3e 3d95 93bd 42ad 833e 6821 bfbe
7016 fb3c 294f d2bd 17f2 533e f08c 8c3d
a7cc aa3d dd46 cabd 2bc0 423d 4196 2cbe
7c45 82be ec5b 47be a5c1 c4bf 549f be3e
2471 e2bf 4edf f43f 4592 63be b287 23be
99ca d83e 3f43 3a3d 1f37 ad3e bdad 423e
3e22 a03c 0f3c c2bf a458 1c3b 9ec2 27be
8c74 3bbf b098 d43d f1a5 3a3f e85d a8bd
8625 eebd ac7c a6bc dfd3 453e 6a77 c73d
b497 8c3e 4b00 153f 4594 243d 0580 6b3d
70fd e53d f6e5 fabe 601e 823f b08a 55be
c3ea be3e b929 a53e caa3 a93e 34f5 3abf
c91f 6fbd 9d97 aebe ec5c ebbc cb56 983d
df5b b2bd 0083 80bd 71b6 423f 4dc4 d33e
92fb ae3e b8eb 7f3e 163c c5be 4f80 d43f
41aa f33e 1a6e b3bf d7f4 563f 24fd a5be
8d98 fd3d fc75 7c3f ec60 a53f e314 9ebe
d193 ad3e fff7 1e3f e336 0cbf d79f bcbe
68f5 ac3e 6f14 0abe b6bf c1bd 933e cb3e
44e5 643e 7021 60be 179c 233e 603a bb3e
a27e 0cbf adda 213e 70e3 c03e 2ce2 a83e
2ae1 c73d 5bc0 023f e353 df3c f2d1 483e
3c9e eebd 66ce 64be 9ae6 1d3a c230 00c0
154b 673e b425 ecbd af0b f5be 959c 473e
387c 173e f01a ea3e 4116 a6be aeb9 973e
71c7 8c3c a5db 113d f80f a6bd b1e9 1f3e
b615 263f e0da 8ebe 140a cf3c 3cda 0d3e
92ca 27be e0b0 2f3e b5b6 883e db4f 71be
2e55 2e3d 27af dabe 4b76 773e 3f48 d13f
9ba8 603f ebef 55bd eb0e 073e 332a 5bbd
f517 a9be 9fbe 3a3e 93e2 ba3e 4711 a2be
9566 49be d790 0abf eca6 4840 8f3b d3bf
1f2c 243e 6341 cb3e e135 393e 5d93 f1be
9b57 bd3c a0dc 27be a134 2ebe c242 3abe
71b9 1a3e 3619 a83e 865d d53e 8031 95bc
abf9 f03d e46e a9bd 0494 bdbe 68f7 9abd
029c 8fbe 162f 553e 55fd 313f cc91 9dbe
f225 1b3e 82f4 e83e dc0b 033f efba 993e
1223 0d3e 31cd 50bf 247d 5f3e 87d4 27be
5a7a 873e 054d 97bf 1ec8 49be c5c8 0abe
a35b ba3e 3994 803d 31ed a43e c286 ef3e
f9e9 b6bd 7490 ba3d 4f0b 333d cec1 143c
8c14 013f d004 043e 6c65 eb3e 967f 933e
5646 94be 87e9 223c c848 803d 0f24 46bd
aacc 963c e8df b43e f119 b43d 0bfb ad3e
dd13 47bd 93e0 8c3e f78c e13e 5915 2e3d
2f7d b63e 3105 d4be 825e ec3d 66c0 6b3e
81b4 423d d674 83be 481f e7bd f4dd 9d3e
0452 d0be 4b29 503f 3edc 213d 17c1 cd3e
03d6 9cbd 2dcd 773f ef40 bf3d 697c af3e
bc59 abbe 7d28 53be ad8c 503f 352f d8be
300a 333d 3a54 f03e f024 493f c069 fdbb
e0e2 b43f 04f6 973e 0b40 473f 2c41 bcbe
e58f d1be e271 9c3d 3562 bfbf 146f dcbd
51f3 71be 370f 623c f1b5 eabc 597a 48be
92d5 1b3e 3e3e eb3d c363 70be 4e9c 443f
7bec 1bbe b126 04be 604c 3f3f accb 963e
c2d7 b33c 109d c53f 1596 3f3d 5cbc d23e
10b8 d6bc d5d3 b53e f4e4 91bd d98b 0c3f
2e83 3e3f c7cd b43e 57a4 6f3e cb2d 75be
ca0e 86be b8ec 88bd 00c2 26bd ec75 91be
225e 1cbe f902 80be 21b9 53bc e89c 61be
c1cc bd3b ff9b 87be eb38 33bc c71b 39bd
297c b13c 9699 79be 7b64 ed3d a8df 553e
9678 07bf 3a02 0dbd cfa6 44be 79e7 163f
2159 10be 70eb b73e 14fb a6bd ec4a b53e
49c6 b6bd 6a93 e73d 4196 243e c0a8 703c
aa4b 343e 7c0d 1fbe 2169 133c 0ab0 57be
5a34 21be c392 32be 7e23 c8bd 2e83 a93e
2c08 763e 7c2c 113e e138 38bf 0c3d 8e3e
de0d a53e 17b4 a13f c407 853c 4217 89be
43de 9bbc 01ed bc3e b618 183e 5df9 8ebc
c708 3e3e 1fd6 6bbf 86f4 ac3e 9275 1e3e
ccac d4bd da5e 8ebd 0141 c7bd 0edb 613e
9740 8fbe edf7 d43c 0f4e 1a3d 87ee 90be
06f7 c5be b927 a63e 03ee d73b 0c15 20bf
af53 c53d 803e ca3d 5136 52be 013f 17be
35b5 68be ab3e 82bd b3e0 323e c270 13bf
f79d 013e fbc2 2d3e 96e7 0a3f 356e 2c3e
5a9e 2b3e 97ec b8be 69e1 91be 6949 843e
ef56 3cbe e976 a73e bf2b 20be 0022 323e
ce6e 05bf 0414 043f de5b 08be f0d1 04bf
72cf 5cbe bec1 033e 98df 30be 8a2d f73d
3e07 81be 7ff7 5d3e 50e2 1ebe 4453 863e
63e4 60be b8bc 08bd 941b 183e 1560 3b3d
a97d 9b3e 13d9 aabd 888a 963d 560d cabc
497a 96bf 3882 a2bd 00ff d23e 3091 493f
eece b63d 81e9 c03e 7c6e 2e3e 6ba7 bd3e
bad2 69bb 3d5d 4d3e b945 41bb 2e34 03bf
6e32 87be d5ef 553f dbf7 d53e d885 2e3e
2d39 f1be af3c a63d e3a9 c9bd b466 6abe
f69f bfbe aa02 81be 0249 6fbf 1cde ae3e
b9f0 9abd f52f 92bd 89ea 91bd c359 bdbd
70db 413e 4797 90be 9100 813e 0102 cb3a
daec 51bd d043 763d 0abc 4ebf 7455 32bf
6353 10bf 2fdc a83d 207d d33e a615 adbd
d574 81be 88a2 36bf a9c5 b53e 06c0 95be
a053 54be 1c42 3f3f 8572 193f 3e8a 7f3e
5165 9a3d f712 b83d 8d4f cbbe 2dbd 923e
9871 0c3f 390d 35be d906 7d3e be2a 8fbe
81a2 ed3e b38e 823f c1e2 6a3f 2fca 6b3e
5976 3c3e 5594 e5be dcf3 eebe d504 313f
e04d abbe af53 013e aed6 68bf bef8 19bd
bc2b ab3e da0e dc3e bb19 843c 9a92 373e
753b 9f3e f6a5 75be a92a a53e e9f8 5d3e
9c1b e5bd 68c1 18bb a63f 473e ddad 90be
e514 aebd 80b2 5cbe 5096 92bc a979 533c
371f c8be d130 ca3d e5f3 693d 5e09 9f3e
f628 8ebf 1cca 913e 3c11 db3d d595 b8be
6bb3 91bd fa20 babd a09f 2cbe 8595 713e
1239 7d3c 9ada 0c3e 98aa 83bd 05f4 1abf
e576 973f aa5c a9bd 93dd 16be 324f 81be
36c7 c6be b50e 603d c57f 83be 6667 7e3e
737b 79bd 8790 9bbe 2ed4 bbbe 0eb6 cdbd
bda8 3c3b 6952 3a3e 209a 053d 7364 87be
4b66 9fbd 6d8e 973b fd1b 1a3c 31b4 1dbe
c285 0fbe 7ebd a3bf 71e8 663c 1a45 d4be
9733 c1be 1c5f 79be 20c5 e3bd d209 a93e
5608 a3be e760 fc3d bf8d 4d3e f73c 2a3e
0a71 cd3e 7319 dc3e 1e12 f53e 99c6 1e3f
f1a9 93bd 47a7 12be 0b8a 213f e513 88bd
ae0f 89bd 2bcf 4a3d 8845 f7bd 313a 14bf
e020 8abd fdf7 89bf 4623 d7bd fdcd bd3d
3c0e c33d a8eb 3b3e 6dcc b43d a810 f4bd
0265 86be 1d96 76be 3b56 12bf 8a41 823d
e292 383d 0356 073f f723 1f3c fed0 8a3e
b3b7 093d dedc 6f3e dd06 0ebe e8a1 823d
4135 973c a4b7 213e 0367 3f3e e3cb 00be
bbc1 33bd b32b 603d a2df 0a3f 4200 5dbe
42aa 613d 3106 3cbe e2bf 18be 7daf 52be
7751 39bf b1dc 883c 40da 87bd df25 9bbe
f6b9 2ebe 92a5 36bd 2e5b e53d 7695 b3bc
f53c 4abe c43b 803e 832b a33d f14b 5cbf
cc20 cdbd c006 8cbe 31c8 d9be 9e01 b03d
1759 f33e 50a9 73be ab73 a2bd 781c 603d
dd75 30be 45e2 283e 2225 f6be 8fc7 b33e
78e7 88bd 583f ccbd 2a70 723e 1f2c 113e
fcdf 02bf 48b5 31be 42a7 b2bd b4b8 973d
6728 943e 5b0e 99bd 8926 313f f1c6 9ebd
657a e93e 705e 933c 144a a43e d6a3 acbe
40bf 90bf 600c 0e3f ffd4 2f3e 0959 073f
3df7 a9be 3153 9abd 3db6 81be 0671 523f
f939 b1bd 6410 4e3e eb54 dd3e 8ea9 f4bd
fcbe 83be f0c4 693e b990 943e 56a8 86bd
56cd 193f a5cc 7a3e cff7 183d 028c 35be
9cfe 0fbf f8eb 9fbe 69fa 7a3e 4465 9b3d
d13d bb3d e87f 4c3e 0de2 fabd a0bc ad3f
8168 09bf 3802 91be 99f0 56be 9420 153f
8af9 e4be 6d8a f9be 1772 3a3f 3eb9 03be
12a9 b7bd 4ab0 273d d9f8 a4bd 388f 60be
a861 ca3d 1af4 3fbe f740 f23b f0e9 91bc
6e5f 233e 70fa c4bd d966 1ebe 0920 143d
b7e6 553f 62a5 9cbe e905 273f 961b e03e
c2e9 66bd 8ab7 a13e c64c 2dbf 51e4 423e
a405 71be bd86 e63d 0c93 cc3c e379 16bf
60ce 903e 4b2d 093f 5a10 723e a211 0a3d
1b45 d03e e7c7 80be de09 ea3e 3f4f bfbd
06be a6be b6e7 2b3e 61b3 2cbf afde 8f3e
c0c2 0e3f d4ae 3a3f d2b2 8d3d 92be 5cbd
3e7d 53bd 47a0 513e 4a96 2dbd 3cfe b0be
e282 543e 9d1b bfbe e153 643e 6a09 0ebe
a606 413d 1665 7bbe 47c0 783e c680 7ebe
846c a63d 68d7 c23e 7228 08be 975a ea3d
c21f 993d d579 293f 452c 4a3f 4883 013f
83b2 34be c2c9 0c3e 3d18 eebe bcdb 6d3e
8d09 683f 8b2f b33d a501 c53e 9ec4 50bf
01e4 7a3e c7d4 27bc 0682 063f c047 d33c
1eea 38be 4da2 c93d 28c5 03be 1d10 173e
8310 3c3e 36fa 40be fecd a9bf 4f30 033e
3228 f2bd e535 e0bd 2c07 79be 7ef7 b3bd
f96b c03e 3ea4 9ebe 0cf1 953d f87d 123c
9d00 5cbe b37d 42bd 6b19 a13d 74cf c6bc
fdd4 e43e 421a 2fbe 66c5 c93e a75a f1be
fe9a c43c 4138 923e fcd1 833e a91a ae3d
1d9b 293e 32d6 27bf 6a8a 95bf 6a30 10be
e244 eebc d9ac 913d e83e b23c 0efc 57bb
0595 66bd a771 0e3d 6160 043e 032c 0abe
513e edbc 3994 7c3e d63c ffbd dc87 c33d
c904 c6bd bbc3 b1bc 424f 173e 9894 f0bd
86e2 d73d 892b aabc 6288 c7be 960e 883e
117b 043f 78b7 1e3f b2d8 123c 03e2 0e3e
58c6 163e 7d3c 503e f342 f83c 26c6 fdbd
9810 763e d088 1abf ac8e 053f 6038 aa3e
6fb3 593f d099 24bd efe9 13bf face 9abd
2861 6c3d 9cb2 363d c4e5 c9bd 6b19 2d3e
0b99 fcbe 7703 703f 587a 673f 45d2 42bf
7dd2 be3d 815a 373e e482 b7be acf3 bb3e
58a0 d93e a998 98be b27f d43d 75e5 893f
9ccc 6dbe 67fa 5abd 66c7 a13f fcca d1bc
9565 20be 83b6 c8be 02e2 5fbe 6fb9 273e
d9be f43d aad3 433e f53c 503d 670d b7be
a6d7 d63d ab3d 263d e083 82bd 4ce6 5dbe
1635 7dbd 2d5a 803d 8d43 83bc 0c90 27bd
d72d b13b b375 82bf 2a6d fcbd e448 06bf
714d 59be 6702 e6bd 07fa 73bd 1aa6 cc3e
c9d1 4cbe 1a2c 823e d806 38be be1e 69be
550d 233f e3b2 8d3e 267a 56be 864e 663f
d9ce 213e a47b b03d 2437 1e3f c04c f0bc
df2d 083e 7c19 083e 53e1 5d3e 3084 81be
781b 933e 832a bd3d d7d1 cabd 6eaf 7c3d
eb90 663e e912 18be 3eae 853e 6160 03bd
bf94 08be 44e1 803e ffde 2e3f da25 b1be
945c 2cbe 3c43 4c3f 0d34 503d a709 bcbd
cf0b df3e bda5 443e ae46 843d 07c9 9a3e
4e7b 3bbe f1fe d03e b20c 383d 85a7 6abe
dc39 ea3e c1ea 7ebc 3bcb 4fbe 5eb9 c8bd
7ebd 813d 7c0a 94be cb32 4dbe 7b4e 5abe
6381 81bf 56e0 d8bd 5e3c c5bc f992 6dbf
4df5 883e 317b 093e 281d b83e c0ff a0be
ca99 ccbe 13aa 9b3c 0a0c ba3e afbb c1bc
ddfd 86be 0b3d 7fbe ac39 683e f108 08ba
d1e6 5fbe 1644 a23d 9840 01be e613 37bd
35b7 793d c104 eb3d 97cf 1b3f 24fd 8dbe
3e5f ebbe d13b 2e3f 56b7 82bd 1707 c13e
0904 d53e 82de d23e 5767 733d bee1 b03e
ac7d 0b3c d586 f83d 68c5 6abe b18a 7f3e
f52c 3c3e 1e97 6cbe b225 5f3e ccdb 8abe
386a 4d3d 6cd0 843e 1486 73be 6603 933e
88ff be3e 0dfb 08bd ad9e 0cbf 610c a93f
d3ee e0bd c51c 30bd 98d4 073f 5466 9f3e
e0cb 4bbe 2866 353e 0603 243e 3a6a 4e3e
cb7d ef3e f9af 8a3f 8d59 debe fa6a 40bd
9bbf 333e 8bb9 fabe 4b20 603e 0952 843e
d7b7 dfbd e361 af3e 7a13 f93d d443 b33d
ac6a b73c f828 8bbe 7a19 943c d052 96be
1e74 dbbe e521 26be f066 3fbe ed86 1b3d
24ee 693e 9aa5 5a3b 490c 91be 5438 5e3e
3c53 73be 1b3e 1ebd 7ae6 f53d 27f1 52be
b01a aabd 1f76 f13d a9be c2bb 6a13 10be
db8e 68be 4f75 25bf 5f9a 223f 37aa 73bf
3d4d edbc fa8a d63b bc01 88bf 02c7 3cbe
e06a 39be 0fae 5fbf 55ed c1be 583a cdbe
3bc8 d23f adb1 0b3f ecf5 7cbe d441 213e
7a0a d3bd 77c4 b33e 59d4 333e 933c a43f
451b 123f daad e93e 7e46 173e 5fca b53f
4c37 74bd 5910 6a3e 64be 1dbe 6579 393f
61b5 29bf b832 61bf d329 8d3e a7e0 813e
a3a9 36be cd88 583f 3a53 6dbe 7981 a7bf
6c91 c83f 23b5 0abe 0cb7 5e3f 397b 263d
7089 ff3e 8fda b9be fb2c 443d dafe e93c
1bac 25bf f2c6 3fbe 4a17 183e 844b a0be
51b6 a1bc 53ad 313f e1f6 e3be 748b 893e
6d92 853d d12a 05bd c5fa 613e de4f e7bf
3cb4 fa3e e441 883e 7c9c 6cbf d6c5 5a3e
1261 003f 1c14 f5be 8ea4 11bf b3f0 0ebe
3137 6c3e 1d54 e8bd bd97 ec3d f9ce 803e
5fac 0a40 7444 003f 0ae9 0b3e 3967 75be
48d4 c3be e350 263f ce55 14be e86e 9ebe
ba7b 9cbd 1adf b2be 9748 8a3e 3eb3 1f3e
4ead 043f fc97 d2bc 9533 d3bd 5f09 86bd
d2d7 423e 3db2 27bd aca0 40bd 07bd 183d
7564 ebbf 3550 c63e a075 f5bf 75a3 1040
7dad 20be 423b 0cbe b7cb dd3e 6739 77be
6ca9 443e 090c 083d 3180 5a3e de6a 2d40
9c49 23bf 93b2 77bf 31d0 983f bfa4 eb3b
5237 72bf 5a09 fd3e 4686 303e 8333 d2be
847d b2bd 4409 433d 256a 903f 34ce b23d
717a 613f 005b 243e 526c f8bd 4417 983c
af17 81be b597 16be 077c 0d3f a73f 463d
ea21 87bd 1100 79be 7d68 843e bbce a33d
e00b d63f 2433 90bc 9b0a 21bc e8d9 a1be
4852 753e f9af 06bd a1c8 133e 9d72 a23e
21c8 fbbd 7a78 bf3f 48ab 4b3f e5e1 8fbe
67f7 723e 10bf 433d 0edc c93e a0c0 9f3d
f528 933f 9178 013e 2640 ac3e 4563 2d3d
5776 ee3d 4939 6fbe 554a 033e 71d7 c4bd
3a6d fb3e 5960 b4be 865b 4f3e 68af b13e
bb08 87be bfe0 a53e c29e 5fbf e133 003e
75c9 9fbf 54d7 89be d372 0e3c 648d dcbd
1ff4 ab3e 67b3 38be cc51 443e 8c4e 54be
6310 4cbe d250 d93e e87b 4a3e fc92 19bf
495e 013f d16b f43d 7c88 b93e 4d7b 7e3e
d966 34be 37bd 31be 989b d43e ba91 413e
7b9b 0abe 0955 98be 0afd 503e b363 3f3e
42ff f33d 2849 a33c 5b57 2dbe ad07 9bbe
5417 2ebe 56cf 34be 9a57 82be e25c cb3f
3863 553f d89d 463f dec2 af3e 4774 a7bd
f665 70bd 13e4 f03f 5967 823f 86b6 f63e
f80a 44bb 91e5 113f 77bf b5be 0732 48bc
d0cc 753d d185 943c 721d 9ebe b13e 62bf
1f9c 4cbe 054e 9abc e091 ad3e c3f3 8b3e
3b99 4fbe 01cc bb3f 43b1 2bbd 95ed 53bf
37a6 9e3f 798b 2fbe e642 a6be bdb6 ba3b
9661 ac3d fca8 0dbe 6573 953e c761 a23b
05cc 6abf ef48 ba3e 2398 23bd 186c b6bf
2d22 953e 6c3a 5b3e 8bd7 4fbe ce45 0cbf
2d58 083f 36b3 c93d 3389 bfbb 3a35 97be
d116 8cbe c556 d93d 964e 24bf 4651 6b3d
9834 243e e0a6 89be 51a5 98be 17b5 663e
37de 4f3d 9f3f 413e 6e54 6440 48d7 b8be
298a 01bf 6db1 1740 c280 ebbc 0a43 07bf
f364 e8bd d073 d63d 8f8b 023e 9108 b33e
55ba d43c 4bea d1be 1ab7 ab3e ac7c 7f3e
b19c 92be b620 81bd 7c9d 7f3c 55b4 2dbe
6dd4 423e 7f7e 9f3d e2dd 363e a4dc 233e
a852 6b3d ad89 6bbd e2a2 c2bf 6778 903f
72a8 edbe 1bdc 30bf 5ea3 a1be 6ddf 09be
05fa 053e 6902 703e f782 fb3e 3cdb 31bf
96db 073e 6704 283f 5214 0d3f 2aa5 4ebd
86cb c3be 0d40 ae3d f379 9cbd aa95 bebb
49a3 a43e 4c64 303e 1316 663e 5125 0c3e
2e9c 823f 4c66 1dbf 640c 563e 2600 fcbd
0095 77be 8e14 50bd fbf3 9c3e 654a 8cbe
b48c 0ebe 92c1 74bf 15dd 8e3d 9fd7 643c
ac3b e83c cb81 4d3e 927e c23e 57f3 2d3e
5726 52bf f0b7 8d3c 290a 133c 7077 023e
feca aebe 85d2 a93d 00fd 7dbf cea8 35bc
3741 a83e 714c 1abe af02 8c3d 85bb 073d
0fa2 623f 9e58 33bd 5671 4b3e 386d a03d
3980 df3e e9e3 29be 7d28 413e 503b 1cbd
ce80 643d 3144 8a3c 9440 0fbe 26d8 dd3e
9d49 bdbd 9d66 d73c eed4 d3be 5499 cabd
a045 dd3d 30ac 013f 5a84 ae3c dfc2 28be
6177 b23c 65d5 68be 24e2 f83d fd50 2e3e
a7c9 56bd 981e 3abe 5a72 0d3e 5ef0 a23d
f95e 23bf 1892 8dbc 0a4f a13e 19c3 96be
4ad3 9abe 2b13 b7be 3fd8 1c3e fbf0 083e
d730 cd3d e122 62be 8b40 37be 6ad5 1f3e
4196 5dbe e7e0 853e 5ef6 6fbe c31b 963e
8df5 143c 0d87 88be a79a 513e 38a5 aebd
8932 df3e b202 2a3c 8172 48be 6c84 e1bb
2930 63be c765 c8be 8f21 18be 0d03 813e
6592 c13c 404c 253e 8e6b 7f3d d310 dc3e
88c5 f1bf 6b65 8f3e e0c9 09be 0d62 1ebf
efeb 97be ef4d bbbe 0dae a03e 17af 8cbe
01ed 563e 3239 80bf 9c2a ae3d c58d 9c39
9352 2fbf f454 f03d 4a72 623e 7768 1a3e
9654 a23e c7da 173d 2c93 21be 99c5 29bd
f8f8 4ebb f86f 7a3f 7acb debf 2d38 4c3f
fd48 923e 92b3 853d 0b4d c8be bdc7 d23e
2165 913f 0a5e b13e a387 733f fc49 443e
7323 8dbe e1ab 5a3d 96ee 95be 58b0 17be
8a0c 55bd 85d9 e4bd f0f1 153d d02f 933e
2227 1abe 1228 133d 87b1 c3bd 98e7 af3e
456d 5f3d ff26 2cbe 5028 213e 15d4 f73c
5398 01bf 173d aa3e 3b08 aebd 33ff 7d3e
4926 393e 64b3 f03e c950 c2be a069 b8be
c141 ad3e 8cd7 413d c692 f23d fdac c53e
3928 363f 41cb d6be f633 75bd c2d2 9cbe
3f7f 0bbf ff5b efbd 882f de3e 9ec9 37bf
0a91 3e3e 1acf 73be 413f 543e 3974 a9be
0e11 c4be dbc3 40be 61a4 bbbe d153 89bd
6839 183f 4e2b bc3e c381 a9be 7bac da3b
f456 20be 566a b8be 4b55 d3be d1b8 b63e
2a69 2c3e df34 06bc 0dba 90bd 9a82 713e
11b5 7b3e 5fb6 903d e539 6f3d 8a30 4d3f
46d9 a7be 98a6 febe 50db 8cbd de62 793e
14d0 03be cff9 01bf 84ef 5d3e 24d6 353d
a93e 803c 0814 f5bd 35d3 073e 85d1 46be
9d99 953e ddd3 e73c 4ec7 a83c b10b 48be
5891 ffbe d800 643f ef44 253f 5752 683d
1f99 1b3f 746e 6b3e 6eb1 81be 58f0 b13e
cd39 553f 1eab 0fbe fb56 8e3e a930 a6be
e7f7 873e d4da 2abf b92b a9be bc93 82be
50db 1abe 8102 21be 5e11 7a3d f9e8 8fbd
8d34 e2bd 9207 6a3e 1d97 d6be 8770 7d3e
7fc6 033e eb14 d03d dea4 a3bd dd70 443b
3b86 04bd c18b d7bd de20 5f3e 8bea 22be
d1d9 4cbe e974 073f b78d 353d 46b1 b73e
a2af 8bbe ccf2 2abc e34c 4b3e ed74 bcbe
2aa1 28be dbef 093e 9683 f5be 3700 23be
52fb 4dbf 03db 893d 2f8d 853e 6136 febe
d44a 563e 9276 f03e cc15 39be cc5e 9c3e
6acc 803e f5c4 ec3d 5447 48be c625 91bc
cf59 d03f fcb5 ac3e 79f9 0e3b 83c8 1b3f
dad0 93bf 6b37 88bf 3d63 333f 1e55 833e
65ad bcbe 9968 e73d e702 93be 58bb 6e3e
5d4c 823e 5238 93be 13a7 1d3e f765 e33e
8636 a8be f8e2 2a3e c593 0a3e dd17 96be
85f6 263e 0e35 03bf 4b74 3e3e 5a46 c23e
ef84 e73d 6003 7fbe 4b59 b4bd d809 82be
1552 bd3d 740b e63e 9e40 d9bd 06b9 dbbc
c8e2 2d3f 84f6 9cbe 0145 5b3e 883a 2b3f
285a 5e3d 0b66 7c3e da5a 40be aa66 a33d
cedf fb3d c7c0 8abd 6e81 8c3d eeaf 10bf
95a6 493f 6c24 5e3f 37ce 2cbd 50a5 89bd
c0c4 08bf d120 283f acd6 08bd e9cf b43c
7e11 893e 38d4 fd3d 20ab a73f abde 963f
ff4c 353f f010 e33e e3b5 6d3f 73ab b43e
0a23 ca3f b3e7 2240 fa05 643f 77d7 af3e
a323 263f 0440 993e 2435 e4bc e5dd 9b3f
9cf2 943e 6135 ca3d ea4d 983e 2ddc 643d
ba7a 0dbe 2f59 863d a311 5a3d f511 efbd
49c0 1bbf 5f9b 443f c228 7a3e 19de 40bf
79bf 3f3e fd7e 0bbe 36c7 28bf ab61 5abd
f9f7 0a3f 4808 703e 6090 9e3e ede7 0fbf
3c89 b8bc 7e29 863f 611f 843f 098a 423e
60f1 a5bd 9275 9a3e 20b6 b8be eced cd3e
2815 4d3b d585 03be 675e bfbe f67b 5c3e
59d4 fb3c d69a 763f 2ec6 cebd e81a 1c3c
b567 0ebe 317d 923e 82e0 783a 20e4 033e
6206 8a3e 0037 d0be 7ae7 8d3f 17f9 343d
9e39 d63c fa14 05be 8648 5fbf 4280 fe3d
477e 80be a0a8 c63e f207 3cbe e961 1dbe
cbb5 28bf d480 0f3f 1ea0 363f 14e4 3d3e
55a9 5d3e 2ae7 0fbe 6f43 7bbd fe5d 493e
c945 2f3e 6349 6dbe 2dd1 c4bd f6c5 fe3d
b8a6 9ebd 7b14 9abd 3d9d 6b3e d75d 86be
80c3 ea3e f3dd adbd 108f 823f d6e8 f2bd
7661 e43e 154b 043d f02b f4be 8486 9e3e
58ca ae3e 1a4a 753f 3948 a43d 8476 d1bd
4429 fabd f2ca abbe 89e2 0c3d 4e3c 7a3e
acde e7bd 56ab ea3e 0b71 30bd db8b 6bbe
bdf5 5e3f f904 be3e 84c6 84bf 1e44 43bf
df8b 003e ac56 6e3e c841 9dbe 4831 94be
98e4 85bf be58 b63f fae1 ff40 fe6d 603f
739f 8fbf c422 983e f78b 1b3e efe3 4a3f
2147 f43f eb8c 1ebe 9131 473f 093a 93be
cde1 123f 71a9 0c3f 47b8 8cbe 95e2 923e
40ed 503e 885c 29bf c65d c13e 416c 13bd
7447 ec3d cdeb a33e 6aae 04bf c255 32be
d202 03bf 373c 2dbe f254 783d bc47 2bbe
737a a23d 5c9e acbe 1df5 22be 28db 8abe
5d7a 3d3e 1bea a33e 4520 b83c 20bc 2abf
34ce 813f 0e0e 693c 0bd1 a53e b251 863e
6b1b 313e d654 e4bd 78a4 4f3e c05a 06be
f9c4 77be 7181 59bd 34cf c1bd 993b f93d
668a 67be 0c0e 263e bccb 08be ff5b ae3e
1d01 b33e fd69 1f3e 7325 a93e 875b d23e
35cb 1b3f a4ea d13f f606 6540 19eb 203e
9ae6 91bf bdab 0dbf 68db 0dbc 5724 a53d
13ab adbd dbfc cf3d 73b6 65be 86e0 66be
bb27 2e3f cddb fb3e 96f5 463e c214 01be
07e4 8ebe 7c82 2bbe ac87 b2bc d517 13bf
7b67 37be e5bd 0bbe e074 8e3d f825 ebbd
1c9f 07be c7b0 5abe 8831 07bf 8009 0bbe
4f20 aabd b158 5dbd e359 29be 4f9c 20be
a689 6cbf 93e8 723f f292 bd3e 55c7 f6bc
1c80 80be 6bc0 653d 59db 113e 8391 41bd
cf68 6c3e f9f4 c53a c979 1dbe 15e1 cdbb
c258 c53d 1564 aabd 8626 c43f 1059 973d
9a2e 173f 894d e53e 475a 6c3f 0bf1 e9bd
c0bc 4bbd e5df 3ebe ce22 38bf f4a0 09be
5cac 3a3f cf4a 7bbe c5ed 76be 4da2 83be
cb4a d73d 530f a7be 487a 90be 5366 3d3e
630c 79bd 898b 4ebf fdae a4bd c5b0 893e
ea93 10bf f5ac 053e 7891 e63e e663 4dbd
67f3 903e 9384 2c3d 161f 29be 8e07 533d
c6ec 57bf 845c 893f 526e c0be 409d d13f
2faa 483e 61a9 70be b66f 21bd 1f54 233e
15b9 ed3f b1a4 b63e ba4d 6a3f a5b1 803f
acd1 26bf ffd4 8fbf 6564 be3f aeb9 f33d
ced0 f33e 9ef4 2f3d 666f 8c3e 24d6 ffbd
8d1b 803e 1a22 71be c4ad 08be 010a 973f
36ce 9a3e 88f8 83be 83a8 933d 9847 41be
1a79 173c 5571 50be 3b48 aa3f 2a5f 043f
b737 013f a3d3 1abf baf5 943e 39bf 1c3d
397f 533f ba95 283c 9f87 4bbe 409c 833d
f9a0 a53e d57d 223d e044 9abd 7f6d 213e
b799 203f 6263 51bf 9b87 86bf 6438 1340
b25e 2a3e e388 233f cb45 963e 41b7 ab3e
e2ab 393d be38 21bb 9bdc abbe 4caf 18bf
9872 693e b88e a33b b104 a53e f433 ff3d
7b84 be3d e4bd 99be 8c49 62bf e321 c23e
6102 ae3c 1964 603e 4ff7 c5bd 5a41 f0be
33d5 72bd 0d17 0cbf 64b3 c93b 48a0 1d3f
e7dc b3bd 1a4e d43e c58b 8ebe aae5 dcbc
ec10 6a3d 354e e5be a90a 3bbe 9ebf bbbe
d0b9 30bf 84c8 04be 3caa 163e f283 1d3e
28c0 263f 685b 31bd 18df 15bd 29ac 523e
b3a5 85be 4723 b63e e5b6 fe3c 0a04 723f
033f bb3d ec69 933e f250 93be 2151 333e
6a1b 0abd 619f 0fbd 5ce5 1c3e 7abd 7fbf
3e57 08be e8ed 4fbd 3856 b2be 22ad 1b3d
dfea f03e a33e 14be 4104 c93e 78d1 233e
2e80 76bd 6cc4 323e 337e eabf 0bc3 63bd
2e45 473e 4281 b7bf aea7 b03b b3aa 603f
f9eb f1be 1f72 463d c331 2c3e b18f 8f3e
2787 c3bd 3d2a ad3d 6e8c 9d3f a6c0 1e3f
3878 fe3e e2b3 27be c332 b8be 22b3 61bd
d097 183e 3a51 9d3f 78c8 4b3e c9d8 2bbf
0512 20be b63b 3d3e fc17 7f3d ecf6 2a3e
6d09 ae3d cc33 2bbf 7dfd acbd 4bb8 fcbe
d5a1 0bbc 7c9e 613d f743 54bd 6e34 783e
4216 febe 50f8 343f e9bc f73e 0fc4 723e
7af5 b1bd 06e0 633e 6903 d1bd ed6f ea3e
b63e 073e 034c 91bd 68e0 3ebe 1cdb 4bbe
972e 4b3e 49e6 42be 9370 b5bd 3a59 d13e
0b7f d6be 2870 163e 811e 83be 5283 773e
bb41 473d bb5b e03f c0f0 2a3f 7954 fa3f
9635 e73f 4681 0c3f b6aa 3b3d 2c46 8fbe
2ac0 a6bf a02c 8a3e 82f7 b4be 114f 8c3f
996c 99be a92a 863e c9a7 113f d811 bbbd
5f40 0b3d e81e 34bd 8f22 b5bd 0c94 633e
479b 613e 24dd b4be 62cd 703d 6978 4bbf
bf8a 2c3e 3230 f83e 76e5 c63e e2e7 1cbe
fb36 4fbe 69ef 4abd 327c d03e 2132 583e
24c4 ddbc a59d 633e 96b0 533f f3d4 92bb
9ef6 c7be bccb f33e a486 45be df02 b8be
92da 993e c9e6 893e 5e6e 563e e9af ac3e
537a 693c 60c8 eebc 8c8e 163e 8e91 243f
3b3e f0be c9d3 2a3d ab0d ecbe 7071 85be
1a64 f8be acaf c83e a74a 6f3e 2cd1 98bb
81b1 b2be 0729 2d3f d4b7 583f f032 4ebd
0abf 5b3e d807 013c c33c cc3e 93b3 323e
ca28 fe3e 7416 3d3d 7ebd a13c b758 7bbe
55a4 bb3f b0c9 283f 5ae2 533b 45c8 bcbd
3c24 023e 14e9 74bd 3adf 5cbd b059 ff3f
be29 593f 1e18 b93f ac27 a2bd c780 68be
6578 593e 9cb4 c7be 9d6c 7dbe 1a12 e7be
fd27 09bd b1cc a53d 9d88 ff3d 254b b43e
0d66 ab3d e3f5 48bf 8322 673d de7a 7d3e
b5e7 a0bd 303d 633e 882b fc3e b997 0ebe
246d 5f3e b053 1abe 4bcf 79be 46ad f03c
af8d 7c40 ec98 69bf 2e85 c0bf 2fd1 6c40
5787 bf3e 5919 63bf d270 16bd 0443 833e
5965 af3d 52a9 813e eb99 babe e576 31bf
57ff 8e3b 77f2 e63d bddb acbd 1b5a 793e
af6d a03e 1c03 063d bbc0 893e c02c 4c3e
5d74 fdbd a895 b83c 2f24 fd3e 2481 30bf
c42a 3dbf 559c 1640 32e4 143e bafb 5a3f
faae e23e f8e3 853e d977 0c3e b9b0 1b3e
951c 55be 46a0 ffbe a844 0e3e b3e8 d0bf
e7b0 4d3f b31e c6be ffb4 a5bc 5c5f ca3d
616c 8d3d 5c75 0a3f a96b 983e 4a98 c73c
0baa 823e 4c43 8bbe e183 39bb 69c3 9f3e
0826 313e f6b3 e83e 1dec 8ebe c422 1b3d
f973 0c3c 0436 aabd cf64 053e a438 8fbd
d620 573e f027 013e e0fe a73e 7980 ee3d
769f 023f b957 08bf 84b1 30bf 33e7 43be
7fd4 833e fc99 ff3d f51a 59bf 1240 cf3e
6b52 4b3e c716 97bf 2a9d b53d 6d70 543e
fc68 4cbf 80cc e13e 6711 62bd 172d 2c3e
9511 853e 9759 14bf b058 233f 5e90 4d3f
5ccd b63e 72b8 ad3e 5b46 743e 87d4 0ebf
9936 dbbe fa3d 663f 42f9 aebe dd10 ce3e
6eed 82bf 3189 a43d 1d3c e5bd a030 9bbf
0aee 7e3e 4a69 813f 47e8 06bf ba81 b83e
8137 72be 5c1b 8cbe 1fa9 24be cdcb 763e
039f 31be 4521 39be c558 2c3e 1f9c 40be
f0eb f13c 857a 90be 6553 803c 851b e73d
c558 93be bc7c 3f3d 9a9b ecbe 50d8 2b3e
279b 57bc e459 7ebe 63db 90be 9a80 05be
697a 06be a291 cfbe 5643 87bd ae16 a23e
28c2 593e cdb5 d3be 559f 2c3f 39c4 653f
4877 333f c345 ee3d 0f10 b1be 1001 4dbe
e940 233e 391b 343e 2630 44be b245 3fbc
72d6 373f a3e1 02bd 7793 5ebe 3661 5f3f
43b8 ebbc 2b21 0dbf 5622 943e f405 e3bc
d6be dfbd 0896 3b3e 3023 24bd 20dc 54bf
9fdc b13c 0139 4dbe fcae ddbe 3585 0bbe
8ea7 213e d673 c6bd 308c b3bd 459d 803e
a15f 1d3e b6ba 9c3d 9419 6bbe a6b4 d2be
adb4 07bf e849 953e 5187 973d 2c52 32bf
45bf be3d 2881 16bf 76bf c5be c8a5 873e
fb9d 903e df60 45be 6e62 323e 6932 783e
e8ef 5ebd 8b0e e53d 7aea 1e3f bd0d 0dbf
4845 013d ab56 933e e3a1 ac3c 1680 86be
ea54 a1be 6b09 39bd f81b ecba 44c7 0dbe
8f0b 4fbe 6b76 f8bd 6a42 43be c536 b5be
620b 62bd 6bf9 a03d 768c 17bd c2d7 b93e
bb32 d63e 1559 a540 8d8e 82bf feaf 80be
4980 543e b3d7 8e3d 6212 bbbe ea0b 1c3f
d6c6 2fbe 26a9 383e 724c 7fbe 36c3 113d
fe6d a6bc aa90 37bd e56b 813e 3d35 623e
e801 52bd 6e45 923d c5a5 6fbe e4ec 80be
0925 1ebd 6a14 70bf 4333 893d a9ee 2d40
bac9 33bf d4d7 773d 7cc4 6f3f ce08 e23d
3ace 8fbe b33e 753f 52e8 283d 3df2 03bf
ccf5 cbbf 02b6 873d 71c3 b5bf 219a 0740
1191 9abe 2f2b 00be 6867 bf3e 4fa5 d43c
9091 053d 08af 03be 4c84 a33e 0d6e 99be
47a3 1f3e 71dc 823e 1ebd 143e 1e17 7bbd
cd49 963e 6e83 85bd c68b 81bc e74b 1d3e
b025 a63e 932f bdbc 063d afbf 46ac be3e
38bb 1dbe ce6f 7dbf 7b7d 513e 41db 9f3f
c1e9 45bf 8d9a 893f b31c 6f3e ecae 75be
0b0b 473e eaa6 83bf 7310 d03e b730 853e
9b03 833f e0e5 04be 0b36 a0bc f655 763c
d2f2 ec3e b169 36bd f933 17be 4e69 913e
711e 79bf fcc5 9a3e b28b 603f 674a b43f
7e12 8cbd 5393 8dbe 4883 0b3d c836 e93e
442b 9e3d 5d3d 023e f479 933e a280 23bf
2a25 a93f a3fe 553f d13d d93c 8a6e 663e
b0d0 f8be f59b d7be 03f7 e33e b61e 033f
6ef9 6bbf 8732 a63b 5555 2e3e 11aa 38be
e51c 623e 664d 9a3e 0e84 74be 631e 18be
a657 acbd b034 5bbb 1c5e 92be e07b 5bbe
d65b 5e3d b6cc bcbe 4f50 353f 24f5 1c3f
8667 bd3e 9676 0c3f 7e86 fe3e 4d8b e2be
18f1 353e 3670 973f c020 64be 144c 383e
ee07 f0be 98df 463e 5531 723e 5452 083d
ef83 603e dd8e 973d 785a c3be 3c05 a13e
1803 8fbd cbbd 6d3d 36d4 4d3e 0373 eabe
eb16 b83a 90c1 9abe 248c 8dbd 500c 33be
165a 7fbe 7cc5 eebd d94f 983e ae85 843e
9f40 e0bc 64b8 afbd 91f0 003f 8c08 29bf
9702 653f 76b1 c23e ea29 c83e 9734 363e
9d9c 513d 0f80 1fbe 5556 91be d933 94be
6fec 22bf 2eb1 f13d d3cb 913e c25e 813f
fdfe 813e 760b 643d d26e 37be fe8d c9be
b987 0cbf cc8f fb3e 3882 e23e 2e4f 8e3e
837b 0b3e 82af d13d 4879 f740 397f 51c0
5a4c 08be 873f 223f 1fbc 9d3d 20e3 bdbd
2927 95bd 6d50 22be 4b82 14bd f99a 423e
94bd 3b3f 6b0d 543f 6fb8 26be 40b7 81bd
0e8e e2be e11e bcbe 3a06 043e 7e04 c63c
bd3d 8e3e af83 b8bd 2ce1 853e cc37 81bd
5a94 b2bd 9fe1 49be b4ec 45be 5417 d7bd
69ca bdbe 7ec1 33be db58 7d3d da76 a5be
af69 853e b9cc 8abd a464 4b3f b5c8 c5be
2ac4 bebe 34a9 053f 097e 4c3e da35 fbbe
9232 aa3f 4995 8cbe a06e 81be 5be2 efbe
e9e3 f2be f12f ec3b 1ca3 b9bd 87a9 68bf
68ff 103e 60df 4b3f a9df 12bf 9119 633e
1f77 a7bd 3093 f53d 741b 86be df03 01bf
c225 ab3e 1fc9 5dbe 2c40 f6bd c10e 573e
51b0 ba3e de8e 39bf 9776 72be 9ec1 a93e
c23e 643d 9002 463e 9fe1 aabf 4965 cd3d
9604 673f 7f29 823f f0bc e93d bf13 2c3e
2e98 6d3e 4811 a53e a39e b43e cf5f 453e
30e7 69be 84f4 bbbe c327 c5bc 8b84 973d
add1 843d 513d cdbd c572 d3bd 0713 3bbd
95a7 483e 4f64 cabd 0854 6c3e 50fd 4abe
8dfe a0be 3750 c33d 4468 0740 d4b3 66be
9b18 0abe b637 0c3e 2341 a53e d887 82be
2aba 7dbe 869b a1be 4d67 91bd ed2f ddbe
b07c 03be 5f41 46be 8dc5 123d afc0 81be
3345 20be 9dac 1cbd 581c bebd d169 6a3e
177c 07be f91f 3fbd f393 b4be aa19 1cbd
24dd 1b3e ad0a 94bd e83b 763e ee01 be3e
8190 90be 0fd3 893d 4e02 89be c21c 163d
3fd3 093e 8cff 1c3f d7b4 593d 6b71 443f
cb4b 033f 6d4d abbd 4ab9 e2be 1ff4 bc3e
4154 103e 2edb 04be 733b 7c3e 3804 373e
0e45 98bf 3c06 443e 6e49 cdbe 2270 01bd
541e 9bbe d24f 0bbd 780e 8e3e 430d 14be
2244 ef3e f7ec 5c3c edfa f0bd 3dcd 943f
dbf0 0bbf 29c7 03bf 34c9 1840 d97a 7e3e
48c1 363f 2f17 4c3d 08b0 553e ac12 cd3c
1479 b0be 9d11 f7be bafa bd3d 7738 293d
6214 753f 2389 e23b ad26 6abd b937 c53a
d9ec 2cbd 0ad5 91bd e84c b9bd e7c0 ee3d
c556 66bc 8a9d 10bf f277 903f 7319 1c3f
3aba 8ebd fa90 e43e 480a a93f fa13 2ebe
365c 91be 3e87 2b3f 191e 883e e65a fbbd
0178 a53d f653 cb3d 0561 c5bd bb91 48bd
3a34 90be a486 84be 2f2f 8bbd cea5 08bd
cb9a 60be 96de 7dbe 5039 b8bd 2bac a4be
049e ac3e b744 ea3e 1e65 5cbf 439b 543e
4cef 43bf 0e79 2ebe 95ce 8b3e ca86 ab3e
a530 a0bd a183 bb3d e905 0e3f b9cf 04bf
5648 52bd 756d 933f 2b3e 663d c7ab 913e
8efc 003e b022 023f b099 a1bc 093d 91be
a6d3 b9be f2d3 423e 780f 1bbd cd61 753e
1128 d53d d9e8 eabd 2041 35be 2322 71be
018c 90be a2d2 c13e f7f6 f73c 8b78 d9bd
9900 103e db50 493c e13b d9be 5962 8fbd
4263 72bd 541a 103e 9135 87bd d6d1 8b3d
0e6d 73bd b878 e6bc 2246 89be de09 63be
9112 813c d517 0c3e 08db 13be b1c2 aa3c
b8b3 8bbe adb3 5a3c 45a0 6c3e 0d3c 953e
a676 79bc d2f1 163e 50d4 0ebf 73ee f43d
d0b0 6cbe 7120 02bf acc9 863d 834c 863e
b321 c7bd 39f5 733e e6d4 97be 94b4 31be
502c cc3d 11c2 87bf 2e1a 54be 6c98 7fbe
d420 17bf b3a5 143e 6207 bd3e 6a82 39bd
ae6f 913e b154 efbc d742 75be 21a7 4d3e
2706 5abf c68a 993e 3522 103f b63f 15be
0bf4 973c d06b 1ebe 617c 1d3e 2fa7 6f3e
7e16 bdbd 6467 1a3e 7abd 85be 0317 dabe
c853 3a3e 4a9d 843d c48c cbbe f59a 143c
92da 823e 6f36 0dbf 52ff 413d aad0 7e3d
55c3 62be 4b39 9c3e 122a 28bf a829 243f
8bc8 403f ad60 933f dd72 4dbd bc39 bfbe
aa13 c6bd 03e3 f73c d38e a43e 5008 ad3d
30f2 13be 661a 60bf f26c 4abe 64c2 a4bd
4857 55bf bcb1 053b 44c3 153f 4ce6 b5be
5a18 e03e 567c ad3d 1ad9 193e 5a39 a83d
fcfb 2b3f 60ae 2c40 72e2 2c3f 2c53 463f
1780 b63e 394b 1ebd a203 75bd 8b06 133e
901d d83f fad8 7d3f 9157 b63f e943 22be
3a2f 5e3e f517 a93d 52e1 313e 583f 983b
a8cb a13e 3e11 a1be 53a9 56be a8c4 9a3e
697b 983e 6f79 8fbe a888 b03e eabb d3be
c9d9 69be 9a25 8a3d 0a58 d43c 6f32 d13c
5131 483e 1db2 8a3d bdc8 3bbd 2bdf a5bb
142e 243e 7dad e53e 2bd4 8e3e 4859 ed3e
6b41 7d3f 5a18 373d e849 9f3e 39bc 303d
ac72 663e dded 423c 7412 87be f66a a93e
d7b2 163e 86fb 393f 333d 4e3f fdae ddbe
957b 6fbd 8400 54be 2c70 fbbe 5fd9 583e
bced dc3e 25bd f4bd a742 b93e fa01 f63e
256b 633d 2f95 86bf 4617 d63d c6a7 87bc
7e57 033f 95ad 993f 90d3 6c3f 9abc 2bbe
9d61 f5bc 7979 4dbe 30cc 66bf 799f 333e
72d0 f1bd c207 dabf c01f 1e3d e84f 353f
2517 c3be 8a91 d43e 899e 55be 57ed d03d
3952 acbd 3c32 8b3e 4505 33be cd7d 40bf
e968 b63f 1014 ffbc da32 d9bd a8ba c13d
9164 363e 31e6 e8bd 4806 c03c eef5 9d3d
3f28 8ebf 0eb8 283f 2a11 cc3e 511e d13f
bcb4 6c3b 6a6f 5f3e 3891 aabc 9853 e73e
b8d7 56bb 0323 1bbe 8eff 243e 61d1 93be
5cde 873e 6ab8 70be 675e 8c3d e9ab 51be
106c 2abe 8afd 40bd 97d6 69bd 49d3 e83d
5bc0 cf3c 52c3 533b a491 a63c 8def 8b3e
e388 6cbf 1096 d4be 4644 81be bc91 f7bd
991d 1cbe 2660 51bb 4658 833e b32e 3b3e
1104 aa3d 9a72 fcbe 5baf 34bd 953e 483e
0361 39bf 4b50 653d 6c92 913d 606a 48be
0469 b43e 6bf0 133d b8e8 673e 303e ff3d
e7f8 7fbf 83d5 3f3d 557d 283f 2721 ac3f
3b44 a0bc 95b2 8bbe 9f33 003e d5ac c43e
67c7 973e c86b 37bb 1ca3 403e ab17 bd3e
8ecb 8ebd 5708 4e3f 5dda 7dbe 1ddc d4bd
b283 8a3e f231 b9bd cbf0 9cbe d70c e53d
9760 97bd b263 83be 904b 84bc 7295 87be
0c40 79be 6b83 633e efa8 11be 2664 7cbe
a18c 443d 0181 2d3e dc2c 91be 4f57 6abe
46b7 b13c d24b cb3c 3e07 e6be 39e7 81bf
4cec 833f 2eda a73d c1e5 203f accc 133f
74e8 ea3e 4d5f f3be 3aa1 123e 4093 9dbe
36a8 bfbe 3f83 703e 2821 a23d c919 d73e
2f1f 43be f67c b13d 4518 35be 95c9 9d3e
e500 1fbd 2db4 27be 21ae 033e 065b c43e
4e7d 4f3f ce7b 913d ff4c f23e 55a5 893d
4cbe edbd a3de 323f 38d6 3b3f 0fbe 083f
e522 1f3e b0db 7f3d a729 87bf 0c19 f1be
d680 56bf 9f17 2cbf 1896 9c3e 6ed5 ed3e
fdc8 2a3f a8d6 a8be 811d c1be fa7e eb3e
7ec1 3dbf 0c05 c2bf c6e8 053f 9397 88bf
fd78 2340 1e81 98be 7ef2 ddbd ced8 733e
4066 8c3c ea3e 003e e250 603e 1052 7c3e
8172 2bbf 704a 37be 748d 243e 0e3f 423e
f8b5 2a3d de53 9f3e d5a3 013d 1a76 9e3e
ec59 9c3d f4cf b63d 3d68 9d3d 0b20 1a3f
a7c1 debd 114e 9cbf 48e2 343e f389 bdbd
3af9 003d 2e39 2e3d 3ac6 713e ea2c 35bd
5eb2 88bd 24e6 b4bc 36c3 35be b864 453f
e4d9 113f 6840 273f f333 00bd 6ed2 b4be
388c 513e c3be 67be 3e5c 8d3c 962e 123e
344d f73d c60d 6dbf 5631 0b3e c02c 853e
bc7f 7c3f 1186 803e 4a3a 183e 02b0 c63d
4685 0f3e c9fa ac3a 5b64 bfbd 9c0f 49be
4666 d13e 81dc 6e3f f5d4 903f 193a 433e
986b a33c ed52 a33c f6d7 58be 08ce e5bc
ccad 5b3d 6554 2e3e 2f59 7dbd 54d6 44bf
e86f 683d 432b 81bd 1d98 e83e 6d52 f83d
5b7f 703d ceac a03c ce01 94be cc34 993d
8d64 5a3d 7215 0bbe 4cc4 c3bb 0eb1 68bd
d144 83bc b36f 95be da6d 9e3c 3928 be3e
68dc 80be a4ff 933d 1d42 46bd 070e c1bd
3f39 363b 4bf3 d4be 49f2 ebbd a333 54bf
a80e 033f 5aaa ccbd 20a6 e0be f9d8 8a3e
bcb7 98be d1b9 2cbe b8a2 a23d d5e3 293d
8a31 4f3e d3af 453f 43a1 e73f e10a 36bf
68d1 283e 550c bcbe dec2 74bb bf10 133f
c25b 9f3e 9ab2 19bf 682c f53d 8b52 abbe
40f5 bdbd 0471 cbbd 1cf0 163e 89a6 50be
6708 4dbe eb87 873c 7a55 e03d 34de 823d
7f2f 4d3e 5564 783d bead 40be 7361 213f
5db6 053f 3aa2 493f b340 11be 0612 04be
125e 53be 9af6 4cbe 0a54 483e 5bf4 563e
b345 91bd d83e 9c3e 7f2c 9cbe ddce 9c3e
e020 94be b80d 91bd 5bc2 cdbd ff09 353a
8cd6 f33e c7e4 42be a485 573e 3e87 cdbd
504b 0708 8d5e 2806 0058 0000 0058 0000
504b 0304 0000 0808 0000 0000 0000 0000
0000 0000 0000 0000 0000 0e00 0400 6172
6368 6976 652f 6461 7461 2f31 4642 0000
19bc 98be 5aee de3b 1fb6 65be 6011 d83f
30f9 693d b957 013e cb5f 1e3f 541a 07bd
bc9d 89bd 6319 293e b4e6 803e 867f 2e3b
7953 963e 4c8c f53c fec8 b93e 0936 ecbd
1279 c23e a312 8e3d 35e1 303f fb59 c3be
42d4 ee3d 3f69 a13e b2d0 ee3d 7078 0b3f
ed2b 963e ed8d 1f3f 8f6a 703e f7c7 063d
0ed4 b63e 18df 76bd 2865 a83e 52c5 d33d
593d 213e 0bfd 423f 2e85 27bf 60f2 8cbe
0b66 d83e ad3d 40be ae4c 9dbd d9c9 89be
000b 21be d142 463e 9767 763d 5c85 0c3e
efba 5fbd 5dfa c13e 16e9 393e 64ec 9c3e
248c 233e 2d2d 953e 4e07 86be 10f6 9d3e
80ca 85be ddf2 1ebe 505c f0be f91e 90be
0e51 2a3f 4c5a 1b3e 4914 25bc 121c 3bbe
e0ac 1c3e a670 0d3e f541 303d 9084 65be
ad85 723e 9ab1 353e edce 4bbe bfe6 56bd
dc67 00bf 49cc 953e af48 bd3d 201c 8e3e
0f92 f43e db75 08be 247b 863e d982 763e
7331 45be b907 733e 105f f03e f252 c4bb
86dd 353e 450d 48be 60ab 363f ed30 043d
654e a7bd e18e aabe 13e4 e53f 048f 9d3d
7be2 08bf aafd 2bbb ad8b b73e 5a7e 9f3e
8667 2cbe 877d 8d3e 3636 f53e bf93 fb3e
6f80 ad3e ac12 4f3e 4782 e9bc a058 9bbe
d257 973e d94b 8f3e 4b89 6c3e 995c 893e
870a 143d a3d4 8e3e a213 7f3e 44f8 4e3e
cde1 85bd 298a 8fbe c145 2b3e 23ea 9c3e
f77b 053d bb54 82be 9213 a6be 0020 48bd
c27d 763d 9970 2bbe efca ec3d 0fce b0be
e92d f6be a9e8 50be 1d54 883e fb96 11be
32b6 eb3c 2381 c13e 1910 973e 450c 85be
ad1c c9be 6c2a 223e 8ace 113f 2248 0c3e
0079 d93e 3670 88be 1ce4 d33e 4f68 d33e
66f5 aa3e ee79 a7bd b7d6 383f 642d 903c
d7d5 1e3e cef6 57be 2c78 d2be 36e9 0ebe
97be dcbd e312 953e f23b 5cbd 2aa4 263f
0ecd cc3e 9658 b33f 7f9b 00be b6ed b6be
a431 febe 810f 31bd 61c6 ae3e 8878 e53e
7fd6 46bc a0d7 ac3e 1696 513e cb70 333e
e359 6d3d 1021 c1bd 8255 f43e cccb 3cbe
ce64 973e e34b 8f3e 0b1d da3d ed07 15be
534b 5abe 8a3f ef3e b872 1b3f 0b84 843f
a9a1 603c 9eb5 29be 6649 363e 0032 703e
edc1 93be e9f8 a93d 8c69 af3e 51ef 6b3e
060b d13d 1cf6 14be 3847 103e 6dfb 57be
8e7d 933e 58f7 26be 6d33 debe 5f71 c43e
9d4e 48be 69b7 5cbd b6cd d53d d941 d6bd
db14 9ebe 5c34 5cbc 89d6 973f 2d3b 7cbe
a94f 7a3f 3337 8ebd fc51 003f 8f55 03bd
0898 f23e 5362 6dbe b193 38be f6cc 94bc
6439 2fbe a797 013f de14 f5bc 0d16 913e
6de4 1b3f 187d ad3e 2973 453e f508 8a3e
ef3e 03be d871 bf3e e73e c6bd 0f2f 31be
13d9 513c 412f 79bd b904 d13d a11a 01bf
275e 0abd 9171 653e 0939 24bf 7f1b aa3f
3cc8 13bf 157f b2be 21c6 b23d c10e 0a3e
d581 583f aa1e c93d 04ef 333e 0392 45be
e98c 3f3e dc1a 3e3f c490 6fbe 83e8 743e
3679 b13e 8c85 963e ca98 903e 3497 f6bd
6fed d33e 9082 65be 0d54 a93f 9090 063e
cd1d cd3d 3576 70be ea74 773e 2e7a a23e
c08c 1fbf a9f8 6a3e 7425 0a3e e26a db3d
a9d0 4d3e d11f a9be 6f25 58be 6832 f3bd
4333 1bbd dda5 ab3c 1175 c0bd ae76 91bd
8a2c 813e 8823 70be 46fb 9b3e 979c 513d
4231 033e 6733 723e ff71 c83b 4026 0cbe
213d 29be 64f5 d73e c44f d4bd 3318 f0be
bd87 553e d2f8 423f 34c2 223e b8f9 263e
9959 603c 8b97 963e 3150 f33d 2a55 95bd
64bd 88bc 82aa a4be 2b01 b5bd 0bf7 373d
79f0 923d eaee 6bbd 94db bc3d b439 813e
d40b 713e b6c9 d13e 044e 823e 9dbd f13d
5777 e93d de5b dd3e b748 273e 5c84 afbd
9287 4a3f 1345 8ebd 197f 943d ca8d 893e
8dde 573e 378e 973e 1b83 183d 9a71 423d
0c34 063f eb7b debd cf85 41be 5f1a 873d
9015 3bbe 0431 473e aea2 c8be d401 82be
f8fa 013e 6cb2 a1be de0f 2bbd 24bb b43d
5f19 bcbe 246d ec3e 1203 2cbb 4acb 82be
f19d b8be 1fd8 8b3f 6e7d 203f 2b1c dfbe
78ea 8fbe 5787 3a3e 7e66 1f3f e334 0e3e
9584 4f3e 69f3 31bf 7720 893d aac1 4f3d
e88d 483f e2b9 9a3d 7f11 803e 534d 1dbe
0d52 353d f69a 2f3e 9e89 9d3e 1517 d63d
f790 803e b913 dfbd 59d6 cebe 47f4 4f3e
4bbf 143f 40a4 4b3e 9065 be3e 4f45 fd3d
27ce f83e 5534 c93e b1b5 bc3e 6f8c fabd
3c74 90be 0e77 0b3e 1212 a43e 4c91 843e
a8f5 833f 49dd 613d 2786 a73e 30d5 763d
8860 56be 48f0 c63d 35b8 3b3e 9a92 28be
a529 313f 10d8 3a3e 31a5 693e 5eee 16be
a1ca 12be 2be3 253f a0da f43d e995 893e
a4df 80be 7a81 6e3e d412 a33f 11d9 ccbe
de82 af3e 39a0 c33e d8a3 18be 8c26 863e
ce5f f43d 0302 e9bd f1a1 40be a654 433c
ac97 ba3f ac68 adbd 30d8 803d 0872 27be
da8d 253e 4c14 293f 0cd6 d73c 84c0 913d
e0ca ec3d bf28 2c3e a082 abbe f96c 93be
f829 d23f be73 91be 5bc6 9d3f acf8 23bd
8324 31bf f676 423e 14f6 77be e758 c5be
55a2 213e a65a 45bd 879c 8a3e dcad 883f
c29d b1bd e056 04be c00e 44be f4f4 6b3f
da8e 853d adaa 8e3e 618d d43c b7dc c83d
0ac1 bc3e 9df9 0e40 37db b1bc b3b4 81bd
f076 5abf ed6f eebd a02c 13bf c05c 6cbc
8f4f 8fbe 8034 febd 8c8f 1bba c061 303f
beff 363e afe5 683e 3094 1d3e 432c a53e
b5cf 85be a391 583e faec c13e 82da 59be
aa39 81be 61ab 673e aeb2 813c e04e b43c
55ab 263f c27d 24be d285 b73e 6f24 813e
267c f2bd cc8d 343f bce2 30be b2c0 5a3f
3254 643e 25b1 583e 8f40 5fbe ffe9 363f
5c57 cebe 2e62 e13e ae94 7a3e a8f4 f8bd
f764 d4bc ed6c 0ebd 2de6 813d 74e3 a73e
6383 6b3e c532 963e 54be a1bd 0140 afbe
ff14 c23e ea53 5ebe 2a5f 0abe 2eb1 ca3e
3fee dbbd 34fc ff3d 8d2c 82be 438b 56be
b8c1 7c3d ac05 863d 45ee 0f3d caaf 89be
ca50 94bb 9151 473e b541 e83e d268 1a3e
7642 1440 7f86 443e f68c 88be efa2 3abe
e632 fb3d 22ed a3bd 0ee8 ac3c c1f7 08bf
bfed a03e e70c 4b3e 93cc 783e a145 cd3d
cdec d33e a1c2 2c3e 9a42 08bd ccff 53be
b3fd a93e 5b56 9f3e 5202 7cbe a6e2 b53e
7dd7 cd3c a091 043d 6e26 293e 56c2 a53e
c0fa 323d 9be5 5dbd 3f27 ebbe 8d46 8b3d
d8f3 123f 27f3 ef3e a042 263f 1436 e8bc
504b 0708 6b49 7430 0008 0000 0008 0000
504b 0304 0000 0808 0000 0000 0000 0000
0000 0000 0000 0000 0000 0e00 0400 6172
6368 6976 652f 6461 7461 2f32 4642 0000
e984 553c ad64 9e3c 6460 b9bd 8d70 f6bd
9a85 b73d 15da 10ba c0c2 613d 9d35 0e3d
baf5 f9bc 23ff a5bb 307f f63d 0339 b8bd
3e5e d6bc cc74 163d 4e72 0dbd 0e64 ce3c
638a 603d c671 593d 50c2 5a3d ebdf 5b3c
6065 f43c acf0 e4bb ab03 4b3d 23a1 4d3f
436f a3bc 019b 00bc ccf1 643d 13ed 1fbe
af11 3c3e 450b d0bd 0428 803d 65b8 07be
48ad 63bb c497 4c3d 0a4e 2abe df77 4bbc
ae9c 9e3e 4754 283c 0fe7 e83c 3918 22bd
3cef 073b 4d9e 2e3d 2f60 2dbd 8842 803c
55d2 0cbd 72cd 4a3d 4e01 4d3c 8b5f 203e
0d1e d53c 5da7 d43d d729 27be c076 793d
0365 c0bd e8cf e73a 62d1 923d db54 e7bc
049e 513d a856 f03c 8584 b03c 4de8 a53d
d417 16bf 0156 393d f684 5ebc 8617 7bbe
42e4 5d3d 34a9 173d c8ae 95bc 6462 2cbd
6e84 753e 4bb0 3f3e e362 f83c 8dc1 733d
da00 0e3e 41f6 31bc 0d49 ec3b cba0 ef3c
e2b1 0ebc 162c 593d f968 9f3c 1d2a 373d
9064 333d c6ce 723d 52f1 6dbe 7a80 1b3d
e7c9 2e3c 4962 4cbc d122 90ba 0f4a a63c
a317 a4be 9be0 f6bd a331 703e b7be 023d
df8d f83c a7b2 a9bc a2df 8fbb 46c1 8f3e
ae8c 3a3d e47d 3fbc ad58 563e 0aca bebc
2f0a dcbc c0b1 c33c 62d5 aa3d 9dc3 c9bc
0e6a 323d 9e1b 803c 5091 803d 2bb9 103e
7a0d ca3c fec3 2a3d 85e8 7c40 69e7 9c3d
2bf8 483c 4af2 44bd d4c4 9cbd b957 6cbc
daac 15bd 15d3 013d 8d74 083d 4c7e 923d
a58e 1e3f bd5b 833d 3b07 d9bb 4a5b 653d
c472 053d 2ac7 583d 03f3 62bc 7040 99ba
17fb f1bc de75 9a3d 08d5 993c dfab 0cbd
d513 b8bd e4a0 3d3a cff6 3e3d 0d87 b03c
1822 203d b5e6 64bd 49f6 4f3c 1fba 9f3d
a79e 6b3d 9a4a d13c 4a48 85bd 8fef 803c
b61b f53c 048c 6a3d 6f29 193d 509e fd3c
21c6 b0bc 8e7c c93c 1acd 673c d644 fc3a
7285 a0bc bdd9 c83c ce05 063d 3806 6f3c
3a39 fdbb 6a7b fd3d 319f c63c 9241 c23c
fe58 d6bb ed87 a93c 86b4 8a3c 2aa8 a53d
bfc2 0b3d c837 b13d faea 133a ec97 02be
e38d 673b c310 75bc d057 31bb 13a8 1f3d
7872 a5bc f043 d03c 3986 0c3e 5c51 2d3d
0eb8 e13c a4b6 1dbc bd46 ff3e a6aa 1bbd
001a b4bc f3b3 723c 724e 423c a3aa ecbe
14d6 01bd ff0b 96be 6dfb 11be 8bcf 81bd
c102 6dbd 56b3 7d3d 3d4e e9bc f82e d039
e374 893e d6a8 a13d f76a 273c c6e6 513f
2860 503c d28c edbc 169f cbbc 71d7 c13c
1509 43bd 9b7f 6d3d c553 3938 48fe debc
8983 a23c 4596 ad3b 59d9 50bc d476 23bd
fcfe 61bc bc59 2e3d 0711 533d bed7 823d
5b4a 6a3d 7894 eebc 807a 973e 2b82 e23b
e730 d13d 2515 603d dfcd 13bd f840 b73c
4a50 653c 2e91 34bd 43d1 b6bd 4947 193d
56dd 113d 8731 9abe 3158 eebb 4112 333d
4a27 50bc 051a 903d 7e51 e2bc 6a85 993b
dae2 dabb d2e5 bd3d 2342 753c 7be4 133c
9b3e d83c e66b 583d cf22 d83d 65d3 24bc
48ea f3bd e941 b8bd 130a a63c b8b2 6ebe
4565 6f3d 089a d93b fbd8 253c 252d db3b
d4b7 cbbd 1d4b 71bc b5a9 c5bc e3a2 713c
f8d8 863c 7ece 7ebe 256b 103d 6923 533d
fa04 be3d bbcc 3dbe f217 263d feec 1e3d
cf2e 643d 0dd3 f53c d42f 4d3c 3f7d 973d
b90e 4f3d 5703 97bb ddd6 223f 740f 3bbe
5163 3c3b 347f cd3e 44f7 ce3c f71a 823e
e910 edbc 71fd 1cbd 8d0b 4aba adc7 80ba
3542 dfbc c056 bb3d e369 713e c80d 8a3c
fe19 0cbf 20e9 0e3f c755 6838 4038 653e
61d9 cc3b b83a 83bc 61bb a73c 1f9e 9ebc
75a3 193d 1f4a bd3d 51e4 0b3e 371b 8ebb
fbae 10be ac02 d03c 6643 973c bef3 643f
3b0a 2d3c 4b5e 9b3d cda7 333d f188 093d
c70a 11be d569 bcba 4dba 523d 9f34 e13b
c73e 38bc 17a3 c6bc 9418 c93c bfe1 4b3e
8278 60bd 830a 103d 78a3 c3be 4f66 3fbd
f5cb ad3c 8c36 753b 9278 94bd a56f 7f3c
8a3c c9be a7f8 bf3d f68c da3b f84c 053e
50e5 563c e09f 3cbd d1c4 623c d9d0 073c
839e 763d f861 173d 05e6 d73c 20a5 9b3c
5c05 503b dda0 43be c8e2 8abe 0150 4c3c
175f 0d3d 00bc 8c3d 7bb1 3b3e 7ae7 b83c
0e60 dd3c 7e64 c73d 7742 a23e baac b3be
db03 92bc 0c4d acbc 6bcc f8bd 63a0 dabc
31d5 1c3d 46d6 4cba 0beb 5bbc 07f9 3f3d
e10c a03c 172f ee3c 158b 313d 4619 0a3d
a7ec 8dbc 112c 1e3d 53a7 233d 6a5c 0ebc
6469 b33c 7bf2 c2bc 1c34 fd3c 8bc7 9a3d
7251 b33d a418 6f3d a12f 4b3d 66f5 0a3d
bdf1 2bbc 396c 0e3e dca8 d83e b964 eb3c
c9d1 0d3d 009c 83bc 41f6 253d 4f90 0e40
ec13 003d b1b0 ee3b 0c38 babc fed4 12bf
1384 a4bc 1e53 b2bc 7330 5a3d b468 0f3e
a57f 963c 027e 383d 673b 263d a1f7 963b
bca7 cc3f 71f5 b8bb 4a0a 1e3d bb58 bbbc
f766 a23c 78c1 e1bc 684a c2bc f261 353e
0c56 f73b 2eb0 f73d fa9b ea3c f37d 1a3d
f776 0abc 2f61 46bc 1da7 6e3d c0f7 8a3d
aeee f83c 9430 e63b a8f0 533d 1d90 e5bd
306b 78bc aecc 61bc 3090 d9bb 4a4b f73d
2154 05bc cf06 fb3c 7fab 6e3c 6f6f 0d3d
fa7a e73d 9dde 043e 5d28 8bbd f225 b43c
7ce9 3ebd 3510 9cbb 1aef a83e e926 09bc
b1b7 bcbb 2016 c8bc 17b4 c6bc 6afc 363e
dc64 c3bc 363b d13c b320 8abb 2a2b 723c
1470 c53c c487 3dbc 7649 a13d f958 933d
62fc 43be d7e6 423d 1be4 0dbd 2e46 993c
2443 653d d72b 48bc 6eb3 a6bb b34e 933d
77b9 bb3d 54d7 873d 8a57 afbc 929b 8e3d
0acd a83d e6cb 1abc b88f 46bc b552 fa3d
732c 533c 3a55 283c 8090 3d3d 8fbb be3d
ea3b 6e3e 3f6f fb3d a7b3 2ebc 67ca f93c
b1c4 813d 7d4f 12bd e615 8a3c 27a1 433e
88db cd3e c865 a43e 5c0d 93bc 6b8c 33be
66ba c43d 5be0 0b3c 10e4 14be 78ec cc3c
e670 99bc c141 9e3c f223 dd3d a86d a73d
5a63 573c 2e2d 5e3b 6abd 443d 611e 17bd
c5b0 23bb 7d40 bcbc 4bfa cb3d a857 803d
4516 a83a c8f7 463d 519c 0abe 772d 4bbd
ad10 073b 292b a73e 409f 233d d3aa 19be
4bd5 dd3c e2b0 173e c7cd 033d 2554 17bd
e347 5fbd 8bcb ddbe 8250 83bc f909 223d
4234 a23e 497a a03c 99e2 103d b282 b33c
dd5b 87bc a86a d0be 67a0 953c 8382 12bd
20cb 613d 3679 2e3d d36a ba3d 79ac 60bc
f58e b43c 1b6a cd3e b644 163e d2d9 fabb
6150 bf3b 9a90 963d 0dd7 94bd 9545 1e3d
6e8a da3d 7197 953e 8602 dd3d 7bb8 2abd
49dc 783c 05b9 c13d 66df df3d 5192 dc3e
df30 d4bc 6757 743c 8415 973c f578 ab3d
445d 943e 4f9f 683c 1c47 6b3e 5a79 a13c
87ef 253d 7d38 fbbc 889f b93d 5d1d 3c3f
5e62 703d b898 923d 75ec 4d3e 3e7b 513d
c9f2 5d3e 1975 d8bc ba75 ca3d b91c 26bd
05dd 2b3d 2e10 c73e a80d 13bf 310f 403d
a907 6c3e 97f8 ef3d 344a 113d 370c 973c
4814 003d ae7b 013e f703 a2bc d73b a1bc
dc2c dcbc 0ad2 683b cea9 383e 01fb 763e
212d 253e 9f85 c43d 841b 553f 13c6 a23d
41e5 5ebe a1ff 963c f9e2 2dbc 2b03 1fbd
2d19 763e 5ef5 8a3c c8fd fc3c d9a0 b63c
3af1 203d 34e6 2d3d 9b04 d63d 78a0 b1be
85c7 623d ae30 44bc 729a 013d 54f5 ee3d
802b 863e 2320 473e fbff c83d 9b3e bd3e
0bbc 4f3e 4539 a43c 5bd4 723c 5d4a 2f3c
71d0 81ba 7e59 793d b05b b53c 2a12 093e
f62c bc3d 6a76 943d 3969 d93d 59c6 9a3e
6455 dc3c 40a7 ac3c bb4d e93c 3286 343d
f636 503d c5d6 ffbd c0ad 6e3e ad9b 2b3d
80b2 f43d 0d00 7b3d 0478 983d 317c 093f
1cfa 043d 285c bb3c 2142 813e ad99 c3bc
48b9 8c3d 7a8e 893c 2ccd 633d 22d1 8fbc
aee3 4a3d 58d5 543e e718 6e3f f7d3 1d3e
be99 e03c 9f07 4a3d fc72 7840 c505 323e
a52e c63e 6b1b 2fbe 7321 23be 4682 7b3b
bbbe b7ba 1b0e 5d3d 054e 0d3f 9a09 463d
79d2 e83d 4c8a 973b 8377 673d e9b1 3d3d
4eb4 8a3d e47b 013c bb69 5c3d cfd7 113d
8df6 90bd 5996 823d 8522 d23d 9256 273e
400e 8a3d 64af 993c d383 b93d c1c3 943d
0766 ed3c 5e71 343d d79b 11bd f5d0 743d
472c a03d 4562 323d 0b9f 2a3c ddab f6bc
b7df 1b3d 2393 b93d 9f1a 223d 50c4 983c
e7bb 9e3d b80b f23d 9d77 df3c 1e1e 4c3d
a11d c7bd a823 95bb edce 31bc 395e 523f
83b6 62be d2e2 ff3e 505f da3c 9f75 053c
ab20 f5bb 84f9 403d f366 b93c 92e2 0b3e
3baf 03bd 1ed4 a13d ec44 19bd 830e b73d
6b06 df3c f77d 823d 15c3 343d 5a04 b03d
9c6f 533d e1c3 9c3d b3f5 b5bc ffe2 2d3d
08fb 0e3d 582a f6bc b917 e43e ba0d ed3c
27f3 a93c 739a 873c dd44 183d 90c9 fd3d
dc31 a53e 532a 15bf 886f 9bbe 30bc be3b
18c0 173d c623 1f3e bd30 cabb 9915 8b3d
aee4 fd3c 2e74 513f 1fbe c43c 7a3a e33e
e7e2 433d 5475 d83b faac b33e d2b4 4f3c
3b0c 9a3d a3d8 273d 1318 733c 6da9 95bc
36c0 a53d 0db3 a03c 3420 883d ea72 73bb
eea7 863e d639 02bb 69f9 723d ebb1 613c
ae51 0b3e fc10 8c3d aac6 02bd a9a9 bf3c
a0f6 4b3d c857 313a 13d1 92b8 3a2c 96bb
c7ca 99bb d9b2 12bc 14d8 de3c 7a5d 5a3d
854d 87be 36bb 8bbe 33fa 543d 2510 b93a
8e20 c23d 32d5 813d 04b5 9c3c 50c4 abbc
cd6d 7ebc cc4b fe3b bdca 893d 08b5 423d
3a9d 103d 6d28 7b3d 7142 953e 1f6d 0c3d
fef1 61bd a467 50bb 3d56 0a3d f70b 443c
dc6c 243d 1dc5 543d e8cc 0b3f 65c5 3ebc
2e85 453e ad45 263d 40df 093d 9495 493d
0ef9 243d c26c 873d 27d1 303d 4c4c bb3c
0b78 783d 546d 2c3b 5b6d 853e 90ff 813d
4f77 a13c 0fd3 e23c f20d e03d 3333 6c3d
308f 933d 8285 3dbc 34b4 023f 0a34 f23e
53bd 103e 5a12 c13e d104 d63d 9e60 3b3d
c423 7e3d be46 853d bc08 de3b 62d8 ef3c
69f1 cd3c 6aaf bd3d 38af 4e3e e881 933d
256d 8dbe 4afa 633e 9c08 c23d 3afb fb3b
13ed 6abc 7f84 6f3d bce2 0e3d 572b 5f3d
e21e 823d 7cae 343f 8fab 153e 8ace 053d
a6a6 c13e 8975 203d 341e 0c3f 7c31 6a3f
e463 5b3d 059c 3b3d cf31 483d 34ea 8d3d
0804 bd3d 3fe3 9e3c f7e6 833d 4d9a 223f
0fe1 463e 70dd d6bc af08 153c 3314 4c3e
de26 c93c be4f 303d a4e0 263e 6006 5ebc
599a cd3d bb4c 8b3c 4b71 073e 2bcf 773c
0a37 afbe 4977 113f 2b71 3d3b 01aa 113e
75f7 a83c 9917 623d 47ce cc3d 544f 64be
9a53 823c 85eb bf3c fc4a a33d d792 213c
530b af3d 6e48 91bd d7d2 88bd fcce 2c3e
9940 c53d 3172 ce3d 2eef 173e 7e26 903c
a9e8 143d 9ccd 1abd e866 793e 860e ccbe
32a6 9739 dd10 44bc f9d3 12be cc02 a6bc
9161 6c3e ab18 c63e b99c a23e 0d0b 893c
7975 ebbb 00ed 9d3d 858f 8c3e c229 1bbd
73f3 a53b 7559 2e3e 3347 5d3e 2095 3a3d
75a1 053d 85b4 15bd 7108 c93c ea9e 213e
a719 293e b005 893e 9f0a 933d cfed 7a3d
415d b43c 5c36 443e e25b b03e 9258 b53c
1220 5b3d 54c4 5e3d b5c8 893c ab2e 0d40
2590 9bbc e5cc 143f 596e 0dbc 6f3c 75be
c314 f43c cdbd 2b3e c2ea 353d d791 d63d
1f77 2a3e a7c7 3abc 031a 693d 4af9 67bc
490d 27bf a3ba 4dbc f6aa 133e b134 39bd
968e 663d d7fe 8e3d 3bcb aebc d0f9 e43d
6808 153e 70c5 e63c c906 f23c 09d1 feba
681b 433e 14af 34be ffbb 8f3c 0bf2 633d
9516 63be 85d5 623d 746b 8ebc 98d2 213e
c536 b7bb 8e40 143d 1d9b 803c 40e0 db3c
69c0 1f3e 813d b43a 30e9 f63b 7ac1 b53c
deb1 f83e fa47 7f3e 2896 31be 40f8 823e
a0e1 063e 6025 fa3c 9b42 c33e fe98 bc3c
4cd6 cabc 6f3b aa3c 5fc5 1b3b 775c c33d
e0d1 a33b a62d d13c a777 cc3b 0893 833d
4fb7 263d 86fc ee3c c263 073e 03cf 3e3e
90d0 89bd 8a27 603b 9d6a 3f3c 1f00 e8bc
de2d 6e3d c26a 89bc 6ade 2b3d a65a 05bd
beda 7b3e bb80 4b3d e68d 033d df5a 9b3e
89ce de3e 6bf0 3bbc aa94 a13c fd68 083e
e66a cb3c a84c 133d 9344 7dbe d9b4 6e3d
a307 edbd bf61 f63e 7733 383d dfbd 233d
ba71 23bc dcca e33c 861b c13e 8f7c 573e
68b6 a33c 5d38 a53e 7b24 0e3d 7000 4abe
676f 3b3e f2dc 84bd 155d 933d 02eb e83c
fa0b 3d3c dd8c 713d 4559 11b8 0a3a c73d
adfa 483e 9f1e 253d 49b2 033d 9315 c23c
b75c d63e 6864 963e da3b 143f a13a 153d
0cd2 c2bc 2136 a73d 1b58 f3bd c608 d43d
906b 2a3f 6925 ea3d 643a d6bc 6018 88be
bb04 d83d 4ad4 1a3e b4df 513e 7332 d8bc
5bb1 3f3e 926c 4e3e 30b8 e6bb e89f a7bc
f1f6 7f3e 427d 5ebd 47be c13c 2665 763e
d62f 2e3d 7b27 873f fa53 d03e b949 1c3e
0e0d ff3d dc19 86bc f9e2 853d f612 9d3e
e032 693d 93cc cd3e cf8f cc3e 07cd be3e
fbe9 01bc 45ab 9b3d f25b 95bd d5ec 06bc
181b 113e d70f 363d 6865 fb3c 7cdd 0d3d
205d adbc 7598 8d3d 2938 7e3d 3b8d 89bd
0914 9fbc 591d 453d 8380 8e3c 5395 7c3d
4217 e33c 8520 74bc 2955 a23d b024 093d
fa3e 513d e0f3 883d 5a13 f23d bbad 433f
e0bd e9bb e4f0 733c 3be6 523d 8225 3ebd
3ac1 603e d185 89bd 30f7 f73d 3472 a8be
95c5 01bd 3608 2e3d 2872 5cbe 1bea e7bb
28a4 b83e 80e0 c4bb 169f bc3c 163e a5bb
e5af 3b3d 308d d83c 3f2d 51bd c37a b83a
f739 c23c 14a2 333d da8a 1a3b cbf5 1f3e
c9d7 1abd 5d28 0d3e 8b87 38bd 9b38 db3d
a85a 6fbd 6172 0fbc d186 103d 87fb 923c
342d 6bbc cc2d c8bc 32e6 903d 7279 6e3d
4b4d c2be a003 583b 8ff4 3c3c 90ac 82be
ad2c 7d3d 8b1b 483d 613c 81bd 3716 dc3c
26a6 473e c0df 493e a2e2 dfbb 2418 e13c
1816 253e cfbb f0bc 34d4 77bc c03b 2bbc
15f9 7b3c 0f89 563d 4d60 ddbc 7a21 7ebd
6c39 70bc 51bb 763c 095b 2cbe 2b55 dfbc
6e0f b63c bc0d 613c 415c 0ebd 9c20 47bc
8795 73be a169 a3be 2f80 843e 9c46 553d
950a 923c c7c5 733b 354c 7b3c 8b11 7c3e
876c f93c 3ae2 8a3d dab4 663e afac d03c
a577 14bd de6b b53b b3a7 853c 866a 3fbb
b5c2 813d fae0 c4bc 6e3c 703c 25b0 223e
0715 5f3d ae1a 413d 5f5f 7a40 deb4 513d
3689 40bd 36f5 c1bd 8513 83bc 3dd2 9abc
eefd 58bc 1511 fd3a 836e d63d cfcf 833d
633d 883e 3d8e 873d 446c b1bc 8acb 653d
5691 28ba 200f 21bb 6024 1d3d 1022 debc
93d6 8ebc 98bf ab3d 133e 973b f97a 28bd
b36e 34bd cda4 443d 5049 af3c a481 11bd
478e 4fba 7b75 893d 2f87 943b cb64 b9ba
4a06 223d 6c04 773b 26ba 15be c272 b5bc
b41a 19bc 89e4 0a3c dafd b33d 09f7 4cbc
074c 9e3c c529 ce3d 6b1d bc3c a16c 333c
681a f5bc 3dca 873d 1b35 71bc 631e 273d
3689 fe3b d4d8 093e 8d5c 953d 7b91 c03c
f3d9 153c c8b5 a03d 86c8 5e3d bbc6 fa3d
62ed 9b3b 5586 c93d c324 ac3c c9dd d9bd
90cb 9c3c 1751 c8ba af0a 1dbd 701a 19bb
3bfa 5b3d aba5 b53c 28ed 3e3e 6cbb 793b
39a2 ea3b cbdf f53b 682c e13e cb9e bbbc
3be6 dfbc 22ba 123d 316f 70bc 511e e3be
0f14 eebc 728e f5bd 033b 0dbe 3369 ddba
612c 06bd 56c3 7c3d e686 90bc 0285 403c
909b ef3d 292f da3c 6d1b e7bc cdad 193f
86e5 f53c cff5 433d fdfb df3c 3238 383d
9d88 c43c a91f 87bc 4164 5b3b 0e2d 03bd
075b 443d 2bfa eebc 4a5e 493d 6188 183d
da15 2c3b b96d 94bc 6038 8d3c d2b6 19bc
4e49 0a3d b72e c0bc 8b50 913e 5b0e 0ebd
3d8a 9d3d 352a 223d 8a5d 7b3c 85c8 d2bb
c780 2a3d cf86 213c d0a2 ccbd 7ff7 a63b
4586 8f3b 7311 88be 0d0a 4fbc 7f85 2d3b
ed92 38bd 1458 0f3c efc3 aa3c 467c d63c
9c98 973c 0f5a 883d 6606 2bbe 3486 9d3c
db18 94bb 58c0 503d 4e9d 403e 740d dfbc
f70d b3bd 9a98 16be ef9c 4cbc 44d7 c4bd
1752 c7bb 3bbc 683b db1a c43c d324 1a3c
03bf 08be 5a55 5c3d d6ad 11bd e921 363d
13a3 013d 98af 2abe 8997 353d 5d15 593d
0f7a d93d 6474 3ebd 3793 863a e1b7 f93d
6a66 ae3d c431 0c3d 9a39 d03c c5a9 853d
2060 74ba eaf1 39bd 74d2 313f 0847 08be
c0fe 493d 5307 bc3e 35cd b23b fd7f 803e
45dd 17bd b9c7 41bc df7a 593d ba73 23ba
1a45 e23c 94d8 f13d 3674 753e cdd6 463b
60ba f6be a360 e63e da1f 003d 6677 9b3e
5247 6abc 2af0 70bc c6ea 2e3c df90 c1bc
8a68 64bc a14d 053e 83af 113e 0875 b03b
e15d 96be 6c66 9cbc f893 46bd ea10 6e3f
ee2e ff3c 5d2b 7c3d 845f f93c 826c 213d
c472 babd 4d79 953c 67a8 063c c946 703d
cd90 a33c 0c34 82bb 95e4 253d f36f 4a3e
a5a4 50bd 9afe 8b3d f1bf 00bf 5a1c 50be
a49d 373d ef69 7a3d 28f4 7bbe 2a37 7fbc
a94b a5be a992 bb3d e969 013d 4be3 173e
af78 803c c4cb cc3c 8993 5d3d 0db0 803c
b3da 173d ae93 0e3d 63f0 103d 91a8 6b3c
ff92 a8bc 1887 a8be 9502 21be 9859 65bd
76cf 1fbd c2af 2b3d d0de 363e 62fc fdbb
fc31 803d 34e8 cf3c d029 a23e 6093 aabe
e7fd 453d 6628 463d 55b6 f8bd b956 7c3d
8363 b2ba 5f56 c03c 7e50 db3c 32cc b4bc
d929 a43d 011d 583c bb74 393c b0b0 ce3c
24ed 1d3d 36da 543c 6633 383d b916 bcbc
ab58 953d 047e 13bd 2b1f ebbb 9134 d1bd
abb0 ca3d d6dc a03c 77aa 9e3b fc7c 583d
1fef af3c c0e2 323e d06e da3e 1248 f63c
df7b a9bc cab6 4b3d 418d e53a 9434 0f40
e5ff 9bbb 67d2 e93c 5f25 643d 893c f4be
40bf 31ba 9c1d 903c c609 863d ac3f 2c3e
5980 f83c be81 9b3b 3b3a 1a3d e731 fbbc
423a c83f 2b82 dabc 2217 5b3d 4caf c43c
0330 1e3d c9fe 623c 3769 1bbd 5493 da3d
52da 5c3d 14f6 8abd 4bf7 c13c fc11 4f3d
df4d 363d d667 00bb e492 103d f074 963d
7264 113d 490e d13c 8d4c 20bc 53a0 c6bc
a120 4b3d 6ffa 643c 6c5b 753d 1ebc 043e
c01e 4bbb e9a9 8abc afee be3c f4f2 1b3c
6ddb 8f3c e75b 963d da73 11be bd8f 623d
e2c9 553c 500a 513d a28c a83e ab14 9fbc
98d8 b1bc 5d73 9f3c 6ee3 bb3c 7b41 583e
c14e 9dbb 6943 2cbc 4c0c 2e3d 2af1 033d
c17a 323d c7c1 403c cdb9 bb3d fee6 34b9
694a bdbd 686e 163c 4e62 9dbc 1852 873d
ae5e 373d 81a0 33bc 4a61 cd3c d764 bf3d
78a9 0e3e a734 aa3c ba7e eebc 265b 353e
cca7 a73d 1755 3e3c 52cb 4d3c 296c 283e
e430 82bc 02b5 37bc dcbc cfbc 7444 c53d
cfd6 f83d dd90 c53d 482d 413d ba70 80bc
c6c4 d33c c77b 4f3d 372a a83c 3ac5 273e
c77d 953e 627c 963e b54b abba 5a46 f6bd
2fa5 183e 03f9 a33c a214 8ebd c983 27bc
a31d 8d3b 0bb0 ae39 eedc 873d 1238 033e
1f2a a7bc 0b7c e63c ab1e 503c 3b4e 443d
d2a5 4c3c 4875 8a3c 7d2a 0d3e a86e 663d
d2ba fcbb 5156 6bbc 69ca d7bd 75fe e13c
33ba 17bc 1e02 113c 7cf0 333d b50d 06be
c0c6 473d ddc9 053e 8c5e 8b3d 3e1c d4bb
8419 25bd 0ebf 6cba edaa 24bd 0dc4 393c
f01e bb3e 040f afbc 4447 ae3c a3f1 903d
1531 373d 84ec 84be 71c9 aeba f276 883c
02e7 7b3c 4490 a5bb 111d b63d 84c4 493d
9cf0 5ebb 1efc c03e fe31 113e 28fc ab3d
ad7a 753c 84df a53d 86d7 ea3c fdfd 583e
86de 003e 8442 be3d df67 433d e20a 30bd
704d dfbc 29cf 2c3d 8312 6f3d 6ee8 09be
2197 8b3c 8698 13bd fd4e ebbc 97fa 96bb
01a3 39bc 588e 333d 90a2 913d edc5 3c3d
86ef 7e3d 0458 3a3e d724 ad3d bc25 403f
dbdc 0fbc 2f04 12bc 7bd1 043d 21db 343d
e810 123e 77d3 bebe 9ace a73d 64d4 59be
d896 823c 691e 093d bede 3dbe df94 2dbd
9b14 a63e c736 c93b 7838 023d a522 213d
c1f3 04bd 7eac 173d d3e8 6abc 45f8 03bd
c40e 0ebc 5834 203d 3c78 923d 9085 0e3e
a910 e73c 8768 b03d 53c0 0bbe 3d2e ba3d
e0b2 e2bd a9d9 9bbc e1fb 3c3c 51f2 5bbc
9e57 393d 19f1 3c3d 5a18 d0ba eccf 133d
a213 b6be ec22 6a3d d93c a03d e9ec a2be
ecbd 423d 5675 b4bc 5915 9ebc 34f2 ed3c
a826 003e eafa 523e 6e5f a9bb c797 ac3d
4d6a 353e b026 a63c f7ef 1f3d d54e eabc
1cae ef3c 4e11 013d 4eb7 083d 4f0f 2bbd
7ae1 25bd d4c6 b03c ca7d 29be 9fa9 91ba
0132 673c c78b 08bc 6979 31bc 29ce a23a
502e 30be ef47 b1be b635 5f3e ccbd abbc
930f 443d d6e6 9ebb 70fe 1d3d f4ff 623e
1921 db3c 04fe b5bb 085b 773e 734d 013d
80ac 973c 3459 d9bc 432c 8d3d e028 6b3c
79de 3b3d dea3 1b3d 3d76 a13d 4328 223e
c714 963c 581b 5a3b 0913 7840 5bcd 433d
ab40 363c 2c01 3fbe f99a 0cbc 5abe 0e3d
a971 2ebc 2579 4bbd dfdd 3d3d 05b5 5e3d
0540 e13d 3b05 023e f300 82bb d38e 42bc
6265 f63c 3ca1 dcbc 9abb 0cbd 7af9 dbbb
2fac 42bd 55fc b13d 0ee7 22bd cfa5 923c
2279 4ebd bebd 373d 4a19 f8bb 3927 12bd
4491 b33b d016 583e e896 6a3d 3d13 533c
f38b 0e3d 64cc b3bc 51e1 05be 90c3 653d
662c f13c 3145 a63d 63c1 353d b090 e73c
65ac 253d 261c 753d c622 243d 40fa 163d
2c1f e63c d9e2 483d 52ad 233d 7e2e 0e3d
872d 98ba b03b f33d 6314 963d 51e0 46bc
625d f83c 6b1b b33c b4eb 1b39 4984 253e
e4e6 93bc 5cb0 d33d 6c2b 273d 008a e3bd
6ee4 e43c b4e1 ce39 a65e 84bc 71a5 bd3c
b567 fb3c 2075 b83d 2be5 033e 1123 bdbc
5012 743c d87e 273c 5804 e03e d6f0 fc3b
bdf0 82bc 2c7f b93c ab65 253c c96f d7be
8483 98bc 4950 f9bd 84c0 27be 40b9 9dbd
801c 55bd 35f4 9b3d 47ed 2e3c eaf2 a0bc
6eb2 e2bd e46a 9d3d db8d 323d 8b77 d23e
f863 da3c de76 273c bbb6 5a3d 8130 33bb
5c48 b83c c9ce 853d 6626 e2bc 440c a93c
a863 a1bc f29e ea3c 8b4a 493d 3e34 e9bc
4667 0c3d 744f 3a3d ab72 ae3d 1991 dc3c
cb44 7b3c c0f0 493d 73b9 6a3e f86c 9ebc
e230 b33d 8393 1d3c 6512 9cbc 9065 eb3c
735a eebc ec10 e73c 64ed 1bbe e7bb 9dbc
7c2f 08bd 1eb4 a6be 8143 2fbc a3b3 4037
13f2 f5bc 67a4 c23d 3f33 d3bc d578 803c
7c9b 333c 9fc6 943d 4597 3bbe 0ceb 113d
33d0 443d 7b2c 833d 9260 1e3e e269 e63c
33d5 43bd 697c e9bd 30cd fc3b 4a81 86bd
5da2 823d 8739 043d 93e4 5e3d d8d3 ae3d
1f4b b5bd 81be 223d 3e07 0e3c 069d ca3b
2a3e 113d 31a2 1fbe d2a3 373c eb92 95bc
d62f bc3d 53b0 dfbc 97f3 323d 7696 e23d
b201 1a3d 8561 913d 2538 103c 1bc6 743c
0aa6 87bb c396 6d3c 62b4 283f e17b 01be
df65 343d f38c b73e 5359 ad3c b247 343e
f53f 363b 4f85 053d 9b21 8bbb f7a1 db3c
2f78 ce3c 1d19 673d adbe 713e b52a 203d
c575 05bf cc16 e93e d3bc b13d f186 693e
372e ab3c a8b1 21bc b4f2 18bc d7bd 2a3d
67c1 143d 571a ab3d 02f4 c73d 8ff2 e4bc
4bdc f9bd 82de 8bbc ab64 e93c 5d7e 793f
d7a0 fb3c 6970 303d 962d c23d 8fd9 b03d
21d2 23be fa3b 223d e6f5 1b3d ca86 9c3d
a1ae 493c cdff 613d 7f69 cf3c 8404 823e
13c0 4bbd bab4 a4bc 8167 c6be c5d8 c0bc
9565 193c 5efa 073d e889 24be 7aaa 183d
4615 80be e313 a93d 262b 0d3b 7f22 bb3d
3973 8dbc 27f3 de3c d414 643d 863f ab3c
6446 393d ec13 093d 2d02 053d 5779 443d
8e75 5a3d 1b47 0cbe edab b5bd f1a4 36bd
db6d 1b3c 6758 363d e595 cf3d 987e 9bbc
fb5b 883d 310d a3bd 7435 a83e 22a2 59be
2024 19bd af30 173d 0441 7ebe 93a8 33bc
4a9b 96bc 4cc9 48bd 89ed 04bd cc2c 503d
3552 aa3c 8f1c 9c3c bfb8 593d 9606 b73b
eea8 b33c f33d ef3c 3ced df3b d90f f2b9
c0e8 873d 70a1 2cbd 054a 22bd 1ff7 a2bd
5b63 d73d 9299 14bc 2fe6 453d 3c4b 1a3d
5470 023d 9d57 2a3e b646 cb3e a308 9c3d
c37a 783d 6953 6a3d 5c0d c33c b351 0c40
5faf 483d fbf8 963c 5599 c23b 010b f3be
5698 663d 5378 2fbd e4cf 873d 694c 243e
9040 a13c c227 fdbb 5391 93bc 37dc 033d
b953 bd3f 2332 0e3c 6083 8c3d b7b5 dfbc
34de 923d 2e60 d2bc 65bd b9bc 287f 383e
b36a a43d 4a13 39bd 55e4 7b3d 5442 493d
9be2 90bc 0cb3 343d 5a0d 403d 306a 7c3d
13bd 063d 8918 c3bc 17eb c4ba d4c8 00be
99c2 5a3d d28a ae3b 0e1d 1a3d 40d6 af3d
5915 833d 3d71 fd3c 95ed 2b3b ef74 973c
9df1 12bd fe4c d13d 5d92 e4be 4c1f 493d
0c6f bbbc 8066 673d f634 d03e cceb 4d3c
7a43 d3bc 4b94 8cbc 59b0 a13c 04f8 613e
4b5a 473c 58fc 72bb c3d2 1c3d f13e 3ebc
65f3 6f3d 4eab 963c e1f8 8a3d b13d eb3c
34b3 e0be 3469 713c 92c3 9e3c fdbf ac3b
464a c63d 6a69 02bd 5302 d2bc 7e42 8b3d
de5f c53d b396 1fbc a4c1 2e3d f677 b83d
548e 0eb9 18bb 76bc 40fa f0bb ad20 0e3e
8293 0a3c a664 ad3d a0b6 3f3d 9b28 273d
23ed 3d3e 32fe 013e 2804 f53c 82ce 0f3d
86a9 323d 1660 5bbc 3aae d5bb 6f67 1f3e
f457 193d 622b b13e 9cec a5bc 2ad4 24be
8df7 023e bcd7 33bd a626 7abd 123f 99bc
24a8 283d 2f63 b53a e079 a23d 663e d83d
27e8 5d3a 93dd 203d ea0d 84bc 7ac9 92bb
9d49 263d 94e4 e4bc 77c7 243e 5b38 3a3c
dae0 743d 2654 3c3d e395 25bd 07be d7bc
814c e63c 2903 7e3c b460 9ebc af82 41bd
d78b a5bb 657d 0e3e a5fa 213d 9676 a2bc
3db7 083d 68aa d3be e843 c1bc d824 9abc
ae83 973e 7194 4a3d 9ec1 413d 5a39 a33d
86a0 79bc 4a97 08bf 719e 41bc 4e9d cb3c
8351 ce3c 0240 563d e048 463d 207c 3f3b
6eb2 18bd ca58 cd3e fa09 463e db06 be3c
92d5 f23c 025b be3d 47c4 a7bc c0c3 36bd
911a 063e e64c 053d 9c55 8e3d bc05 93bc
3707 09bc 689c 643c 1692 a63d 5029 ddbd
f342 86bc ed8e 0f3d 002c 933c 2e1c 393d
d89e 303d 43ad 8c3d 5bbd 7b3d 09eb 4d3d
07a6 c23d 4571 473b c6e9 a83d da4f 4b3f
93b9 fc3c f8ee 09bd e7be 383d 9da4 c33c
5249 303e 5261 69be 8afc d53d fb44 76be
6a14 21bd 6295 653b 7a89 7fbe 206e 6bbd
a63a 943e 836e c63b 7e27 723d c696 133d
1814 dabc c220 8d3c 129b c5ba 620d 633d
fc44 b0bc d047 6a3b fc51 d63c c6d8 373e
d0bc 44bc 8145 653d 99e6 9ebe cd4c cf3c
f3d3 6dbd 4f47 0c3d 1125 0d3d 137f 303d
7ef0 0e3d 19fb 4dbc 5975 89ba a034 b53d
61e9 89be 5022 633c 9bc0 5c3c f7c0 81be
e9c8 3b3d 4b14 923b b10f 52bd 8323 38bd
aeed 053e 9815 0d3e 38e9 2d3d c0e4 b63d
21a3 0f3e 8336 2bbd bd09 363c f45d e13c
cd96 b5bb fb73 66bc 7d68 ae3a 658c 2b3e
e996 b03a 04e4 423d 0a71 4fbe 0c3f 3f3d
c0e6 3e3c 34e4 ecbb ccca b53b 2c0c 39bd
b7ed aebe 3b45 4dbe 6ac5 513e ce93 e1bc
1e80 923d 9b56 063d 99ae 8e3c 46bc 763e
03f0 fc3b 9d32 823a 11bf 6a3e 8290 b0bc
0f79 d73c db30 ebbc 2282 b13d af12 17bd
2ef1 b4bc 9579 bfbc a293 383d a20b f73d
8d25 933d 5c3f d33c 73a4 7c40 ffcf 853d
ee0a 833c fe88 76be b76d b23b 4e05 88bc
72e6 f23c 137a 0fbd 6e7d 5c3d a56d c63b
67cf 0c3f 3af2 f63d 5c43 9c3b fdb2 383d
caff fb3c 9bde 95bb 7611 8f3c 5faf b6bc
35d6 223c 3d45 0d3d 160a 1e3d d7ff 6dbd
10cd a9bd f54d 023c 623b 3a3d fdd7 4b3a
22a4 483d 20ca a3bd 68b1 a53c 79f9 513c
2ced 9c3d f95a 143d 9ec0 dbbd baf0 a73a
662f 153d 6751 a23c 95e0 e33c eb48 4a3d
d3f2 eb3b 9aa4 1f3d ae26 bcbb 8cc4 f6bc
01a4 1fbd 887f 003d 80ac c0bc afbc 943c
ea62 453d c433 6c3d 339c 453d ab79 e9bc
094d 4a3d bcba 263d 61f0 6ebc c179 923e
9d0f 6e3d 210e 8d3c 7954 e5bc 735e 19be
53a3 72ba ba12 013d bdad 803c 061f 503b
bd72 423d 3306 9d3d 8e7b d73d c59f 3d3d
6f31 9dbc fb95 8bbc b665 e53e 8995 f13b
fff5 f2ba ec71 703c e397 09bd 99e6 eebe
7a9c b03c 9ee8 fdbd e217 c2be c023 01bc
6fd9 10bd af7b 1c3c 4a51 e0bc 8b38 743d
4479 1f3e 1a95 853d 386d 183d 8621 1c3f
be93 853d f451 203a 43fa 4f3b 7cf0 9e3c
8ad6 dbbc 6e52 48bb 4e4b 3c3b 3b18 7bbc
56ae 173d 04ff 30bc 9c11 6c3d 09e2 053d
78fe 923c a48c 95bc f21e 3a3d 3ea9 883b
2566 ae3c c0cb 203d 2a43 793e dda3 503d
8dcf 553d 45b2 5cbc 9c89 a73c 2067 fa3c
daed bb3c 93e0 743c 97e1 8dbd 3c44 46bc
ec04 ee3c 0916 ccbe 7606 c5bb e3b3 383d
adb7 99bc 0328 763c daa4 253d 7fa0 cbbc
7872 093d a73c 423d e924 f13a ea29 063d
8162 3f3d 9d40 49bc 2488 0f3e 3e2c 643b
ad96 3dbd ab30 afbd 0c1e 85bb 38eb 11be
bf88 dbb9 cd68 d83c 5fcc aebc 03af 703c
c555 cabd 2e89 053c c30a 893c 7f04 9c3d
5a81 913d b888 55bd ff99 9bbc dc42 d7bb
5b29 473d a0fd f0bd 43c0 153d 2fbb ab3d
6a27 a03d 9c11 943d f1aa 98bc dbf8 1d3d
9fc3 563d b538 c4bc 357d 193f a18f c6ba
8ea0 053d 608a dd3e 9f4e 353d 14d4 bb3e
6154 efbc e137 13bd 813d a7bc 9bff a9bc
9f4b ba3c b55e c83d 47ae 4a3e 5c12 733d
7c91 10bf 3657 913e d1e3 613d 72ae 963e
59e6 c739 80c5 063d 5609 36bc 05d1 95bb
3a41 48bc 6e84 cb3d 8fc7 a23d 093e 7dbc
0d65 19be e253 0bbd 7896 173d a6dc 6a3f
5591 d4bb aa1f 903c 54c2 983d 920d c33d
9532 4dbe 1c4d f93c 7b06 b83d 7e5c 793d
b8d2 23bd acc9 473d dfef 14bc f809 2e3e
419b 2bbc 76ca 6e3d a783 94be 0abf 16be
6baf b7bc 1535 973d 2975 41be e469 7c3a
d400 b0be 0302 8d3d e266 e7bc 7a9d ea3d
cfbf 1b3d 262f f93a c8bb 6c3d bbf6 69bc
1926 fc3c 19a7 173d 1ac3 aebc dd1d 8b3b
97b0 803d a7a2 b1be c00b 8bbd 476a 16bd
5ada 0ebd 4607 953d b533 ec3d e235 073d
ed51 bb3d 7501 7dbc 86d0 a63e 126a adbe
4805 b4bc 170d 883d fa63 10be 0afb 1f3d
bbf5 5a3c f53d 34bd 4ff7 39bc 4cd9 193b
1e5d d03c ad3a c6bb cb6b e03b c305 f03b
e5f0 a7bc d17b 58bc e7fa 40bc 1090 e0bc
0516 a33d 628b d13c 6eb5 48bd 000b f33d
ab3a 043e 47e5 fb3a 13b3 143d 40a4 403d
9fb9 02bd 5fac 2f3e 2099 da3e 4bfb 243c
3ed8 653d 94dc 0cbc 6341 1e3d dcc6 0e40
1151 bbbc ed51 7c3d 42bb 433b a28d bebe
e46d 223d d622 c93c bd39 303d 0153 273e
3b0c d8bc c105 903c 3dbb c23c eb20 f1bc
95a2 c33f e586 a43c c0c3 e43c 310f 18bd
2419 523d 4431 583d bb2d 2f3c d279 0d3e
e021 903d 2283 65bc a182 a63d 99d7 b13c
5990 aabb aa7d 823c 1ba6 41bb e7c2 d13c
4afc 1ebd fc3f 8b3c e883 5c3d 72c1 1abe
d312 d93c 7683 8c3d b72e 683d c7ca 0a3d
0ab2 803d c93a 27bc 4702 0f3d 296f 14bd
19d9 203c cbd3 033e ea22 8abe 1009 4c3d
54a2 1ebb 4d7a 733d c08f a93e 42d8 86bc
b29c 933c 017d 823c 8c7c 013d 1a41 293e
57e0 8dbc 7900 513d a1a6 853c 36bb f53b
a3a0 5e3d 92a2 24bc 0a04 123e 2cc2 833d
7330 14be 0016 81bc 3259 41bd 54f5 7b3d
11a3 773d c1ca 15bd 9060 84bc 7abb f53d
74a3 063e 17ba 0e3c b40e 7b3b ae28 163e
c83d 623d c6be a23c 6769 223d b00d 353e
b1ef 1a3d 9e59 873c c2af 30bd 3704 4d3d
a97a 3b3e dc45 a63d 830f 083c 2c86 653c
0d56 503d 9e9e c13c 1249 e23c cc37 093e
b0be 643e df12 8f3e b5d2 993c 474a 84be
3395 c93d 1dac 2dbd 72ef c0bd 96b4 563b
378e deba fa00 a6bc 6f29 853d 06ac 123e
3e88 d3bc 1c72 c43c 999f c0bc b89f c9bc
b627 773d 7672 3a3d d034 f33d 266b 563d
8dac 183c 9b46 903c 544e 09be fa18 bc3c
525c a53d b5e9 083e 9dde 7d3d 2fd4 0dbe
56c1 a5bc 748a 103e cb5e 833d c490 183d
7569 31bd ca88 3abc 7d16 dcbc bc5f 703d
74d0 9d3e 13e4 a63c 0359 a2bc 4551 e43c
615f 8c3c bb4e b6be afd6 30bc 5be9 473c
dab7 fc3b 2351 523c 990c d33d 5547 043d
5d2f d8bb 099c dc3e c07f 503e 14dd 1d3e
8cfd d23c 77b6 21be 87e5 87bc b8b2 e3bd
255c a8be 70e4 0e3c 8ea3 b03d 747a 7e3c
4044 063d d69c 403b 8af4 663c 8711 3d3d
4c0b 3ebc cf5a 123d 76da 3bbd 1799 e23c
37f1 1d3c b0e8 983d 455a 8bbe cced 803d
db84 803c a43e 8a3c a9e1 6b3d 9d94 d0bd
f5ce fd3c df86 84be 2809 05bc b25e 0f3e
3e18 0dbe 02b8 ae3d 6403 adbd f6b0 20bf
6b4a 773d 09b5 ba3a 991a 30be c5b6 eb3d
17a7 9b3c be62 55bd 38a5 203d f13e 59bb
4b43 213e bfa8 e5be 7502 b53d 9d31 a03b
b664 46bf 1ee4 a23c fe49 eb3c f7b8 b3bc
6f16 78bd b1e0 473d 9a3d bf3e 862e ac3c
8213 8cbd ae1f 073d a7ef 623e 70ce f83c
abbd 93bd 20ad d83d 4d0e 0f3c ff47 e23d
405f b2bc 5ec3 0c3d f1d0 013e 0d94 303e
703f 573d 92a3 31bd 3f65 5b3e 4a86 51bd
9bc5 2abd b575 a33c e677 83bd b12f 25be
6d22 a43c f423 ddbb e905 0e3d a250 dabb
0f48 9d3d 032f 7e3e 2272 27bc 6e27 01be
694f d8bc 7e8b 2ebd 2c6a e33d 4f0b 903c
1c48 a73c 6d7b 723d 3df3 713d 9c27 133c
4c80 fdbd bf3f 95bd e752 013c e2b1 5d3d
3b05 0b3c 253f 22bc c19d 0f3e af1e 40bc
adb3 2abe cde2 dc3c feb3 1cbf 98fc 89bc
270e b1bc 519a cebb 4713 453e fb6f 703c
6e70 363c 77a7 0cbd 87b9 9d3d fcdb b73c
016e 3c3e 2578 2c3c f8b5 eebe d460 4e3c
b02b a4bc 21f6 89bd f7aa 3d3d 24ca 243d
2efb 18bb df18 03bd 103e c0bb 629f 5fbe
92f3 ed3d 016e 863d 10aa 173d a9ab bcbc
84ac 373c dd92 8e3c e421 ebbb e4ef 373d
53ab 303d eb7b 213a 22b6 42bd df25 12bd
27d1 863c 2f66 54bd 84b8 80bb 6e84 76bd
4d80 03bb 3133 60be ff5d 4ebd 026d 453f
4f7f a13d a521 cdbb d6c5 32bd 69d9 f4bc
373e c33b cd32 7a3c 2c01 ee3d 5c36 9dbc
149a 32bd 8837 35bc 243a 913c f5fd 753d
c132 143d 0963 19bc c59d e23d 36ce d2bd
9345 37be 9bad 00bf 6e46 f53c 0577 4c3d
22da 6b3d 3d53 313e 1126 25bd 2846 3fbd
ba57 043d 85b1 113d 61fc e23b 2a55 bebd
e03f 24bd f626 9a3b f466 3ebd 2fb5 d23d
63e4 a2bc d477 0b3e 0b45 953d 3ddf a13d
dbda a7bc 1029 f23c a266 87be 22b9 a83b
0a70 ea3a 000f 1d3d 2368 6bbb fb79 353e
6db6 60bc 2db9 3abd bb15 0ebc 14da 503d
e0ff a5bd 9884 18bd 18b9 81ba d16c cd3d
a114 70bd ca02 1cbd d30e c5bb 05ba 993e
516b 9cbd 4d83 97be 384d a7bb 0ad5 62be
05f5 253d 0885 44bb 3fd7 42bb 78bf 203c
2215 493d aff1 18bd c266 293e 27de 6bbc
1a59 a4bd 48a8 4dbc 1cdb ab3d 4a24 283c
b059 803d 1f05 9bbb 2da3 1fbe fc38 643d
bd0f 983e 9045 363d 4c87 033d 3847 073d
7004 19bd cfd9 e73c 3077 513e a999 40bc
1261 ad3d 4255 2e3e f582 0b3e c4bd 733e
7d6b 8a3d a051 6e3d 46b0 0ebc 556b 803d
c950 993c 983f 333d 24f1 e3bd 2fca 523e
afb3 253d ddda 2e3d 5c21 13bc e283 053d
5ba2 0fbd 2052 fa3c ba11 0b3d 384b 2dbd
7605 38bc 9a93 3d3d ebb6 3bbc 97a1 763d
26e4 4ebc eb6a de3d 4e01 5d3d 20ef f33d
ff82 40bb 36ac 293b 34f9 193d ff54 46bc
5bd0 a8bd 15d9 b53c 37cb b4bb 9b07 4dbb
ac87 e43b ce63 a2be db9b f1bc dc47 bc3d
05bd 403d 6176 f039 4ffe 56be 8995 e63d
2253 17bd fa6e 02be 624e 853d 869c a6bb
f627 35bd a50e a5bc c729 99b9 61f8 263e
8525 9d3d 2953 e33d 844f 82bf 228c bf3c
7a44 14bc 8b88 3e3e aa06 653d 0673 813d
bfd6 763c 51a0 eabc ab22 b63c db50 01bd
f7ff 313e b9ef e8bd bfd4 15be 126f d93c
3736 d23d 99cb bbbc 37c8 a7bc a30c e0bb
534d 3eba d66b 0fbd e000 b93d c57a af3b
9a43 843d 2a6a 95bc 2a9e 13bd c968 c63c
88f6 da3b 07f2 853d 646a c9bc eaef 1a3e
5ec6 373d 49bf 073d 30fc 88bd bf96 05bd
d318 5fbf b62c 273d 467b ea3d 57cb a83c
54f1 98bd 136b 7b3c dca7 133d 9eda 513d
ba2f b4bc 7b99 9cbc 3b22 533e 9be1 453d
3def 9a3c 9d32 cb3c 62d0 8abd e6ff ab3a
9b9e 073c 374a 93bd f3cb 89bd 5b42 ae3c
8108 3dbc 9ca8 883d ac68 3d3d c57a 893d
07d9 9f3d 4351 023f 03e4 3cbf 6e44 b3be
9573 083d 5fc5 2d3d 18a2 ecbd a640 d3bc
b880 e2bd 78e0 32be 233f eebc d6bc 11bc
bb98 813c 8f77 dcbc 26f9 b33c a3f4 2f3d
18b8 85bc 29d1 5cba f0f1 de3d c5df 933d
3539 f4b8 bd8b a53a 9ba3 fe3c 2153 bcbc
730e 143e 6f85 14bd 3ace 363c 3f75 40be
b964 9fbb 2d9d d43c 90f7 d9be ebd0 463d
965f 63bc 9c1e b9bd ad78 713d a8f7 a1be
6460 163d 5bdd 13be c705 0cbc 7dc5 cd3d
633a b53d cbc9 dcbb 0943 03bd 73fe f8bd
e478 d73c b399 653d 73e6 e4bc 2237 e4bc
f32d e63d a1a1 cc3b 1eb8 2139 2e46 913d
0dc8 bc3a 0757 e0bb 6f39 0bbc 9466 c93d
b960 6cbd 1295 c83d 2dd7 2fbd ea29 533b
7a47 eabc 186f 363d 3ceb 84bd 636d 06bd
1356 bc3c 6323 12bd 5046 5bbb f14a 00bd
9b9e c53c 72f8 a4bc 74ee fabc b02e 9bbe
3d34 af3d bbcd c1bc 3f28 c93c e550 ac3d
7b2b 24bd ddc6 ce3d 1ccd c0bd 9dd6 703d
941d 17bc 3af1 893d 9e7d fabd 00b1 913d
1a9d d0bb 16dd 083d 8a53 2f3d 0df3 1bbd
12e0 053c 1b62 d93c 94ea 6a3d c0a2 b43c
00b3 8fbc f80c 0b3d 13a1 843d f91c 37bb
c490 b2bd ecba b43c 3df5 98be c006 60bc
a538 b43d aef6 19be fa4c 30bd d691 b03d
be39 fe3b b548 0c3d 3ba0 e43a 6404 90bc
fade 13bd 89ab 6c3d ae01 f63c e012 a23b
db87 b73b b199 52bc 6196 61be a91a 8abc
7e0d 92bd 88ee c43d 430b 863d ef44 a73d
2786 093c c53a 633d 2162 99bb fd27 6dbd
6698 c5bd a173 e1be 211b 95bb 17ee 63bc
9689 c2be f266 523d bd06 6e3d 0dc2 053d
cf5c 20bd 256b a63d 6576 8e3e 22ca a3be
088c de3d b346 f83c 40ab 0cbc d325 033c
ca6f ebbd d2a2 963d 6b5f e13d dfe6 ecbb
e8b8 8cbb c0b8 013d 3bd1 af3d e872 073e
706a 9cbd 117b 3a3c ea43 6c3d a2b1 e13c
55e0 8b3c 2896 7b3c 9823 123b d77f 0d3d
14da 6ebd 22a7 be3d 9c06 3dbc 92d2 9e3d
28e9 24be 5a48 bcbd 86d8 373c 0365 4ebd
f4d9 a53c 667d c03e 16d2 1ebe bc01 073d
9659 00bd 1138 0ebd 29d1 343d 7221 9dbd
7de9 8a3d d2ba 25bf 225f 8fbc 1a1f 3d3d
61a9 1ebe 0cad 1abf 22f7 883d b330 6ebd
f4d1 8e3c d8e9 e0bc 30c5 a9bd 7b0e 293d
1f97 dd3c 8fb5 293d e831 cabd ef91 d6be
88c8 f9bb f787 44bc 679c 283e 5287 df3d
8b9d 1e3d fe2b 65be 5601 483f b68a d03d
b7ea 493e 2d96 39bd 8d22 38bf 9f0b 8dbe
834c a6bd 2566 943e c4ab 2e3d 2a70 dd3c
b077 5dbe 6c31 d7bc 63c6 e9be c79b 43bf
5a7d e23d d56f 2ebd df31 2d3f 5434 cb3b
043b 21bf 1e01 223d d121 54bf 5d53 973b
79e1 92bd 37ed f4bf 82c0 2d3e 49ea 853d
552f f2bd 4119 e8bd 742a 2d3d 5a71 7f3e
daf1 68be c742 dabe 6756 3ebf a90c 2bbd
6cd9 30bd 6025 a43c 6110 44be 3eed 0a3d
6f70 0c3f 9cfc b4be 043b 18be 94ff 5abf
e7a1 f4bc 7637 9abd ac77 283e 237d 123f
eec7 51be 4d95 94bd fe29 603e f763 ac3b
580b 7fbe e600 1fc0 7ad5 2c3f 9aa8 de3f
88ed e63c 1877 dc3c 07b1 a4bb 43b4 fb3b
b9a2 8dbe 3e5d 773e c1dd 61ba b674 7dbe
264b 053c f3ba 03bf d35f 523d 14eb 82bf
d116 9dbd caa1 abbd 6f97 8b3d 0668 1e3d
5d04 003f a88a eb3e 71e0 1dbf e332 15bd
95c5 ae3e bbfb 69bd 2ad9 353e 685e 3cbf
57f7 01bf 0481 183d 04e5 21bf 9aab 5d3d
6846 2ebd 46d7 2e3b db2b 34be 6550 013d
70e6 eabd 86a1 d6bf 2f4c 94be 2e76 68be
b98a ac3e c0cd 303d 03ab c2be 1c0b 2b3d
e120 e0bd b1d2 693e 21ad 293d 6258 aebb
03e2 17bd 2e22 1d3d a1ba aabd 0e7a 613e
6dea bebd 59eb 2d3f b64b dcbc c676 87bc
62cf 75be dd80 5d3e b7af a23d e2a3 03bf
2097 4ebd 2d23 ebbe ff0e 57bf 79b7 2dbd
2c59 833d edb8 15bf 07a2 d9bd 2d2c 8e3d
fab7 03bc 0630 2f3d da30 cb3d e000 ebbe
898c 833e 0274 2fbd 00b2 cbbc 8761 22bf
e64f 32be 7473 dcbe 6abc abbd c886 6bbe
4af3 593d 42c0 0dbf 25a2 8fbe 97e2 9a3c
1833 3ebd f666 d43d 414d 00bc bff4 673f
fafb 84be b47c c83d 552f d3bd c753 563d
b1b5 fb3d d79c 653d 24fc dd3c 067e e8bd
c842 95be b2de 79be 74a0 00bd feed 9bbb
1ebb ee3c 546e 57be 9eb2 a83c 25dc 2fbe
4202 ecbb baaf 28bf 82a1 a83d f67c a63d
c076 f03c a014 733d 8456 afbd 042b 88bd
2102 02bd fd34 90bd a9ba dc3a c38a 733d
6827 f9bd 44e7 303f e068 113f d2c0 803b
2e8c f93d bfa2 dfbd 9237 233d a0c2 38be
a5b0 153b f6a2 353e 242f ef3d e529 e3be
2dcd 133f 3ad1 173e 6177 a83e 437b 95bd
f772 923d fead b2bd 89e3 7cbd d27e 273d
c7be 55bd 8635 5ebd d274 183f 052f 0c3d
8e71 dfbd dac6 e53d fa8f 3f3d 37fc a1be
78c5 9fbe 7377 3f3e 0d04 1c3d d51a c33e
92c2 25bf 8835 9dbd 0cf7 ae3d a486 3b3d
cdfc be3d 5896 ffbc 8628 30be 2979 ff3c
1258 243e 065a bf3e efef 933e cb4d 5c3e
7f5f 54be 3ff7 78bd d9a6 273e 16fa 36be
b52a 933d 111d cabd 47c7 41bd 767a 6fbd
69b9 ac3d 77c0 08be 6a50 a0bd e001 383d
d009 a73c fd75 943e 9c6e 87be 1289 85bd
06f7 88bd d1a7 cfbb f3dc eabd 4754 6539
396c 18bd b367 b9bd 48bd 05bd 7eef 25be
111f 273d b59c 28be 8ba3 c33d 242f cc3d
a377 2bbe ec4f a43d c488 d43e 7599 2bbf
2c77 bebd fc23 27bf 7c77 223d b363 473e
2630 92bc d60d 4e3d 6b07 27bf 20b8 01bf
eb47 c6bd 4a02 a6bd 4ec7 6c3e 760f 973d
98d6 b03d 342e b7bd 8075 633d 1dd5 1bbd
52bc c6bd 7cda f0be ed3b 5abf da01 903e
ed28 db3e 02ff abbe 67f0 a2bd f2f1 f2bd
3042 3fbc 914a d73c 9cec b03c 54f8 a3bd
88f7 4fbd 59c2 bb3f 466f 38bf 9aa6 4c3b
b067 fbbe 1d9c 15be e854 ddbd c40e 1cbf
d306 0cbe c655 75bd 8835 1e3d c774 e7bd
cee2 9fbd 1691 79be 56d8 d2bd a408 18bf
2967 ce3d f0d3 75bd eed8 133d 9d8e e1bd
0286 ad3c 7148 163d b45d 4abe 976c 82bd
fd61 b63b 4ba3 49be 5580 d3bd 9f96 44bc
9d42 033f 59bd 283e 0e15 213d 6d5a 37bf
8b2c 96bc 1156 2abe 3e20 0ebf f168 0a3e
cdc4 c1bd c084 463d e135 c1be 16e1 3e3d
3a4f 10bd eb60 afbb 1581 e3bc 3702 a13c
711d 30be cd72 f6bd fc41 f53d 94fe b6bd
fa33 31bf 0f22 273d ead6 383d 8e48 bc3e
2183 b93d 2fa4 fb3d 4f73 9d3d 649b c0bc
1b7c 0b3e acc3 5ebe b7bd a1be 780d 77bd
16f3 e63d 7c4c 5d3c 1ad8 9e3d e2e4 fa3b
35ab 20bc 9850 393d e056 923e bf4f 00bc
429a 91be 3c1a b2bc eafc 013d ee1b bdbe
eb34 f8bc 2301 003e f94f 1e3e cb6f d6be
0386 febd 790b 38be 0aca 27bf a135 8abd
32c7 09bd e4bf f9bd 474b 3cb9 9b15 87bd
d061 10bd 19f6 943f db1e 903d ec44 843e
3320 0a3f 82b3 7bbd d5b0 dd3d 47c6 c73e
30be 19bd 0196 3d3e 979e a2bc e0e1 923c
cd9b a73f 31af b33d b09d b03e a557 5a3d
2661 eebc 0611 16bf 4da0 bcbd 39e7 40bf
1141 bc3e add4 323d 3ee7 f73e d165 9bbd
f871 2c3e efb8 ee3d 53ed f23e ad37 0fbe
fad4 803d 58ec 533c 73ee 86bd 0113 0fbd
155f 91bd c192 88bd 8126 6d3d 4253 ae3d
8286 df3d a92a a03c 86c2 ccbe 2f90 9abd
ed00 a13f 7a97 afbe 299c 913e d7b1 e33e
b2e5 19be c9ca 53be be87 10bd 2b65 1bbc
780b 9d3c 4f00 c83b 3c73 2f3d 4bff 45ba
856f 1bbd b4b5 b6bc 30de 94bd 53d0 93bd
4609 2cbd 3d14 fd3c c7da 17bf 45de 19bf
77cf 203d 04f7 74bb 5d6e a93d dc3a 10be
9c52 39bf bdbe 5c3f 5d8c d13c 439c a33e
9d5a 963d ecbf dbbd 7a2d 3a3e 676b 263d
347e 55be 565b 953d 5faa c13c 2709 c9bf
5453 0abd 42e5 853d 41e2 983e 8cc0 2fbf
bec7 e03e c4f7 1bbf d0e9 02bf 73b0 42be
e268 17bd 51d7 643d 129c 3fbe f86e 09be
dfdd b03c 6252 0abf 40ec 1f3d 714c a93e
44cd fa3d 1218 bbbb 655e 93bd cdbb e43c
13a8 ad3c 508b 2bbe fc15 1abe 6572 2fbf
10aa 3bbe 50b1 b7bb ec37 a7bd 399b b6bd
77d9 c6bf 0ed2 393f 229f 34bf baa4 00bc
90f7 3bbb 900e 82bc 5758 e13d bac6 2e3c
bc19 ca3e 8a44 b6bd 8f26 0b3d 58af cb3e
83f7 afbd f9d3 10bf 26a0 cb3d b759 5ebe
3566 b1bf 7c9f 92be 66de 58bb f2a9 b73c
d37e 9cbe 1c1b 1e3d 17a9 0c3d 6963 1439
1522 82bc 43f6 86bf 4395 733f ac3f fc3c
dd81 2e3e eebb 523d ae42 febd 811d 09bc
0f90 cebf 6968 8b3b 144e 423f 3ab8 16bf
af5c 5e3a 40a2 723c cc64 92be 7ec1 a13e
74c2 1c3e 37cb 0a3d acd3 a0bd 0625 a83c
ba08 703c 9833 833d d2f0 8a3d 3c8d 5bbe
0d55 1d3d ac47 023c a6c5 ba3c c723 133d
