504b 0304 0000 0808 0000 0000 0000 0000
0000 0000 0000 0000 0000 1000 1200 6172
6368 6976 652f 6461 7461 2e70 6b6c 4642
0e00 5a5a 5a5a 5a5a 5a5a 5a5a 5a5a 5a5a
8002 6363 6f6c 6c65 6374 696f 6e73 0a4f
7264 6572 6564 4469 6374 0a71 0029 5271
0128 580d 0000 006c 6179 6572 312e 7765
6967 6874 7102 6374 6f72 6368 2e5f 7574
696c 730a 5f72 6562 7569 6c64 5f74 656e
736f 725f 7632 0a71 0328 2858 0700 0000
7374 6f72 6167 6571 0463 746f 7263 680a
466c 6f61 7453 746f 7261 6765 0a71 0558
0100 0000 3071 0658 0600 0000 6375 6461
3a30 7107 4d00 1274 7108 514b 004d 0002
4b09 8671 094b 094b 0186 710a 8968 0029
5271 0b74 710c 5271 0d58 0b00 0000 6c61
7965 7231 2e62 6961 7371 0e68 0328 2868
0468 0558 0100 0000 3171 0f58 0600 0000
6375 6461 3a30 7110 4d00 0274 7111 514b
004d 0002 8571 124b 0185 7113 8968 0029
5271 1474 7115 5271 1658 0d00 0000 6c61
7965 7232 2e77 6569 6768 7471 1768 0328
2868 0468 0558 0100 0000 3271 1858 0600
0000 6375 6461 3a30 7119 4a00 0004 0074
711a 514b 004d 0002 4d00 0286 711b 4d00
024b 0186 711c 8968 0029 5271 1d74 711e
5271 1f58 0b00 0000 6c61 7965 7232 2e62
6961 7371 2068 0328 2868 0468 0558 0100
0000 3371 2158 0600 0000 6375 6461 3a30
7122 4d00 0274 7123 514b 004d 0002 8571
244b 0185 7125 8968 0029 5271 2674 7127
5271 2858 0d00 0000 6c61 7965 7233 2e77
6569 6768 7471 2968 0328 2868 0468 0558
0100 0000 3471 2a58 0600 0000 6375 6461
3a30 712b 4d00 0274 712c 514b 004b 014d
0002 8671 2d4d 0002 4b01 8671 2e89 6800
2952 712f 7471 3052 7131 580b 0000 006c
6179 6572 332e 6269 6173 7132 6803 2828
6804 6805 5801 0000 0035 7133 5806 0000
0063 7564 613a 3071 344b 0174 7135 514b
004b 0185 7136 4b01 8571 3789 6800 2952
7138 7471 3952 713a 757d 713b 5809 0000
005f 6d65 7461 6461 7461 713c 6800 2952
713d 2858 0000 0000 713e 7d71 3f58 0700
0000 7665 7273 696f 6e71 404b 0173 5806
0000 006c 6179 6572 3171 417d 7142 6840
4b01 7358 0600 0000 6c61 7965 7232 7143
7d71 4468 404b 0173 5806 0000 006c 6179
6572 3371 457d 7146 6840 4b01 7375 7362
2e50 4b07 081c adf7 bbd1 0200 00d1 0200
0050 4b03 0400 0008 0800 0000 0000 0000
0000 0000 0000 0000 0000 000e 0033 0061
7263 6869 7665 2f64 6174 612f 3046 422f
005a 5a5a 5a5a 5a5a 5a5a 5a5a 5a5a 5a5a
5a5a 5a5a 5a5a 5a5a 5a5a 5a5a 5a5a 5a5a
5a5a 5a5a 5a5a 5a5a 5a5a 5a5a 5a5a 5a5a
2de2 c1be 5946 143e 42dd 5cbf 8f97 953e
68df 82be 6af1 c43c 1e77 96be 8784 8abe
1d8e 133e e193 cd3e e6a8 783d 5eae 6c3e
7f2e ae3b bc50 14bd 78b4 22be 8956 033e
4b14 c53d fb7d 33bf 70a8 38be 92bc ac3e
0bd6 a23e 044b 763d 6d87 76ba 2537 42be
09f8 acbe 23fc fa3d 7fe8 a03e 10ba 87be
2390 b13d b255 bcbe 6750 80be 22a8 14be
6d54 8cbe fd32 c3be 1cea 94be 09a2 84bd
8f98 f9be 7713 453e e6fb cebd 5bd5 95be
da3f 27bd 41ae 033e 1067 3cbe 0a0c 5f3e
9251 bc3e 7137 b0be 2555 b93c e5f9 da3b
4a2f 15bc 251e 10be cbe8 33be 0030 95be
6f09 38bc 5596 ddbd 69da e9bd 9790 193e
b61e 67be 11cc bcbc b432 af3d c43d 40bd
7a09 cdbe be1d a03d 21c2 6f3e 005c f53d
d335 9dbe f684 123d 209b 96bd 7deb a6be
b6c6 913d 6b01 18be a058 6d3d 2f3e 0cbe
39dc f7be 8220 8dbd b12f 123e d2fe f63d
9387 223e a2d8 893e 3481 f7bd 8d03 91bd
3ce2 67be e63c b6be dff4 8d3e 2330 f63d
8340 74be 23d6 b53d 4806 533d 6ce2 a2be
c319 043e cd82 6b3e d03f f9bc 55bd e7bd
a2c7 af3e be49 d4bd a550 de3b 86e3 083e
33ef 3fbe 6d8b 3bbe a4b5 84be 2e95 66be
0160 fbbc 4a85 923e 0a83 b5bd 5c67 4e3e
d03c 533e a023 b9bd d9cd 88bd 391d f23d
d11a 213e 1b19 acbd 40d3 9c3d 2ece 7abe
6177 6fbe 360c 4cbd b3d3 49be 9adc 853e
8b3f 323e 8930 14bd f7f4 293e 58ff 98be
e770 98be 636e 96bd 9b9e d6bd 557f d6be
cc46 d8be 2b3c 973d 0ca0 843e 7735 26be
1415 a8ba b2f4 3c3f 1927 923e 5133 043f
07ae b2bd 31dc 04be a7a4 a8bc 5862 75bf
ea68 753e 06e9 133f 157f 4dbe 475f b8be
9b86 373e 8f9e a93d 1479 ed3d 854f 153e
0cfb 2f3f 48ec d4be 3a72 66be 0f52 703f
8639 22be c0f1 9f3e 1222 eabd 7553 c73e
7b53 b3be 275f bcbe bd52 68be 9098 82be
ea45 a23d 313d 8fbd be6b 97bd 4f68 fdbd
1069 96be 853f 17be d2e2 593d 1df4 47bd
f47d 12bf d49e 9a3e bc7a 6ebd 9497 0d3b
89ca 433f 8430 cdbd 0c52 8d3d 6d3f c93e
7c25 433c 5c95 debd 9d96 093f a174 e23d
cd37 4d3d 8de2 13bd 8171 63be 657e e0be
d099 683e d638 c3bd 8b32 fc3d b6cb a93d
e85a 8dbe 9a0a a6be a370 86be 8b56 293e
3bb2 89be 16e1 2b3f 6f94 173e 8010 17bf
4180 803f 2cc3 39be fde0 d33e 1ea4 c83e
9f89 95be 2264 ebbd 3fc1 28bf 842e 0b3f
43b6 f63e 68e7 f63d 1ecf 85be 121f fbbd
5307 df3d 0127 8a3d 627e 29be 38c7 103f
a00f b7bc bbce 92be 85a0 033f 64b6 e4bd
a63b 153d 6926 6fbd c03c 3bbd 3f29 f3bd
b90f a73d 05da 453d 804d 983a 5996 b93e
abb5 c6be bc00 f53d ab01 f8be 07d6 8ebe
448e 00bd 006d 803e 838d f5bd b677 1240
7b4c ab3d 13ec 9ebe d88c 0fbe 3698 ae3e
730f 7abd df82 bebe 22fd 7e3c 17ef 163d
327e e43d f82d 1dbe d3fd b1be d098 863e
5922 763d 069e 5c3e 4339 e3be 39d2 4bbe
1db6 e13e bd23 433e b911 20be aa13 3fbe
4bc4 91be 078f a2be f373 53be 0ef3 cfbd
b435 d33e 4111 2abf 87d0 da3e 005f a63e
f588 3abe 8612 1bbe 496c 8e3e c294 6f3d
516b 7ebf a033 b4be 4af2 8b3e 1b30 8dbe
1989 b7be 8693 333c dd9d 8ebe fb72 4dbe
52e4 b63d 833b ba3d 2b52 fd3d 0d79 45bd
182b 5fbe 328a adbe 902b b83d 1024 5f3e
316e 42be ba7f 4c3e c2b2 62be d276 9fbe
ce30 18bf ca25 b13e af11 23bf 8d0d e23d
f679 94bd 97da 723e 12da c2bd 093f f0be
bbe7 1c3e 0007 7bbd c4e8 823e 1bc2 00be
cfec 84be 80aa 10be a7bd 82be 6bfb 333e
4069 713d 6724 83be 723a b13e 4d71 283e
2bec 613e 09f6 9ebe 16b6 1cbe de6c 20be
a61d 6abd 2b1f 20be 2f90 1fbf 9e77 f93e
479a fb3e 308a f83d a5ea a8be f2bb a93d
9ac3 9abc fb8f 30bb b2de 253d 417b 80be
a0e8 53bd c3e2 1c3d 87cc 6ebe 4dde 2bbe
cf4f 9cbe f242 d8be 98fb 63be d595 353e
c23d b3be 4baa 8f3e 5b16 ecbc 0305 83be
8248 c13b 7cb9 91be 2f75 97be 5e23 183e
8120 263e e287 ddbf 5373 b13e 83ef cfbf
13eb 78bf 45df acbe 68f9 493e 4bb5 303d
56c4 7ebe a7f6 1bbe 4f26 1cbe 745f 60be
e321 e03d b33b 513d 1d6f 863e 1ac6 d93e
0159 87be 2ab5 87bd 06cc 923e 62ca 173e
10ec 9abe 0a8f 633d e610 02be 1ba8 433e
38f6 e8be efb7 1a3e a6b1 663e 41f0 4bbd
d36b b8be 336d 33be f028 02bf 2503 b5bb
2568 3abe 68cf a4be bc20 89be 8d3f a6be
e8c8 0f3e 9ed0 52bf 7ed6 a6be 60be aa3e
feb5 bcbe 8a1e 6d3c d1df ae3e 65d8 7f3d
94d7 a43e 0114 143e e837 d53e d732 bf3e
ad3f 413e 34fd a33e 1320 a2bd a801 62be
f635 c5be aa68 813e 364e e33e 3b73 a53e
1a73 c2bd caa2 2440 8755 053e 41be 9fbe
87df 7d3e 5efd a13e c9b2 ecbd 6047 8b3e
4c6b 46be 066f 6b3d 4274 bdbe 6182 36be
e579 56be 4a1f 0f3d 07eb babe 2a95 05be
25de 3a3c 7464 6abe 292d 913f 8b82 1ebd
0216 bcbd 55e9 a93e 689f 773e 1cd5 9fbe
ffab 043d ec1a 543f b278 ddbd f0b3 a9bd
f425 83bd 1a92 92be 255f 4a3e ef59 213c
9b04 9cbe 06fe 223c 7aea 2fbe edd5 59bf
7b43 ee3d 921b 053d e1e8 3abe ec5c 33bd
dee6 ea3e 03cd 5dbe ec14 9d3e b2b0 af3e
6c98 31bf f3af 003f 554c 323d 95ae d13e
00e5 1bbe 3004 de3d 7b54 3ebe c3d7 9f3e
37ce aa3e fb20 14bf 9bfe 643e fd57 613c
4af0 8b3d dfbb 9f3e 7270 a43e d6bb 20be
4d83 5b3b 6a3e 873e e7e2 f4be 9ea6 06be
eabf 3abd 0e71 b6be f087 203c 4b86 d23e
8d81 21be 943f e33d 85f2 aa3c 8bba 25bf
742c b33e 2c0b 153e b264 a3be 9224 5f3d
45ae 2f3f 0593 5cbe 86fa 8d3e 5723 a53e
e747 3ebe e081 7fbe b540 6dbe 6fb0 023f
e856 a83e 14eb fabe d6a7 c23e 6b75 a33e
9940 573e ddea c33d aaa3 153f eabb 7d3c
cede 173e 41a9 973e 40ad a6be 49fd 26bc
44d1 d0be 8e06 9d3e 0004 e33d 06a6 3c3e
4a3a 13be 1059 4e3f 3331 293e a53c b43e
4fcb 9a3c 73f6 b3bd dde0 1cbe 083b 59bb
acfe 63be c9ad 013e 3bf7 0fbe cd16 703e
a3af 23be 1e3a 52bd bb49 e1bc e924 8d3e
78a7 653e 7026 dcbe 1a19 893f abd5 333c
5108 d9be 40ce cd3d 37e5 523e faac 4cbd
37ce 97be b799 9f3e 756d 76be a50f d23e
7ab9 bc3e e890 413e d363 93be 1d31 253e
dc73 cdbe 46c6 12bf 14cd 31be 8c7c debd
5100 b7be 8973 9cbd ad90 21be dcc4 9dbe
5cf7 afbe bc93 00be 59dc 923e fcdf 6ebf
b985 523e 732e 91bd f36d 72be f1bf 89bc
a713 84bc 35af 29be 3c24 e7be a6ce f53c
7f69 c0be 3814 333e 4225 583d e35a a2be
48bf 3bbe eda8 033e a7d0 59be c5ef c93e
dc3d 5d3e 8fcb cfbe 4332 843e f290 1abe
6ccb 443e 2228 803e 6803 b9bc a510 52be
e643 4b3e 11a9 d23e 2cda 843e 3ad6 9bbd
a3af 183e 253e 8d3d 8076 a93d 146d d8be
2109 093e 4882 d23d 32ae f53d 9dc9 18bf
c036 863e 8bd3 18be 18ef 48be 02bb 063d
e95f 34be 3aa5 a93d 2388 7f3e 9113 2cbe
ba50 60bf ae84 103f 64ec 90bf efc4 003d
ae28 95be 9bd0 4b3c b007 6abc 2182 d03e
7026 1a3e cc6f b5be 2e1f 83be bf2b 90be
9861 f6be 66c7 133e 311f aa3e f8bf e5bd
f0b8 463d c553 f8bc 2f9c c0be e27d be3e
afde e73d e138 b03b 5c4d ebbc 45d5 433d
065d 77be 3197 193e 7a93 773e 441d 373f
cd8c b8bd a558 1cbe 83ae 823e 8785 093e
1005 fc3d 264c 573c 9d76 85be b8ee 28bd
c750 ccbe a20e c23d 8d3a 1bbe 4ad1 81be
546a b33b fc2c 39be bb6f 01be 2175 b03c
a682 8abd b457 7abe 8796 90bd 05d5 c8bc
4573 5dbf 8a33 b2bd ba4a f83e 8860 fbbc
fd91 133f 9254 293e a73d 8a3e cbd9 92be
b559 c33f 273a 163d 8cc6 7ebe 824f e2bd
e131 c53e 027b c03d 4b6d edbd e553 833d
2516 98be 0309 c7bd 208f 34be caa4 85be
8c8a 9d3e e3d4 96be ddce d33d 8a1a 2dbe
3494 72be 59c7 863d 0a38 0b3f 1ef5 a43d
f47f d53d 96ac 663e 16a2 e43c 8eee 923e
4edb 9ebe 360d 243e d517 5fbe 3f4a 153f
74c4 67be d578 e1be b220 713e fab4 36ba
71bb b63c 9b77 503e fd34 1cbe 9d2c dc3e
462c e4be d8c0 71be e5a3 1dbe a5e0 f13c
0d5f 9ebe a53d 7c3e e725 633e c034 20bf
6749 4bbe 6aac db3e cbce ea3c 24a3 92be
3d55 a1bc c117 1d3e bef0 d8bd eab8 8d3e
2dc3 0b3d 1799 393e 4dc0 c73e eda0 de3e
ef3d ccbd 89fe 7c3e 49b4 a0be bde0 e93d
ec74 903d 43a3 e43d 2b5f c4bd ad3f 61bc
7593 e2be fa96 72bc 58df acbd fbf9 6b3f
3362 8a3e b4a9 d3bc 00be f73d b10b 3f3e
e2e1 a0be c59b d8be cdbf 23be e720 4fbe
db91 2d3f f987 313f ef4e c9be c9af 1c3f
5892 3abe 2c73 ed3d b207 f43e d6d3 77bd
3ecf b3be 3c3e 3b3f 2f09 483e 8e65 1ebe
560a 09bf 0a1c df3d 5fd5 2fbe 4438 d5be
0f89 a03d e1ec 2c3f 42aa 61be d012 5f3e
e31c 163c 492a 103d 1109 23be aec4 cbbe
bdc2 223e bd22 9b3d f4db 36bd 9d7e 4c3e
7dc8 c2bd b52c 16bd 0586 253f 3f19 77be
4c17 6c3e bc6a ea3e 972e bf3d cb12 353e
7dc9 89be d636 58be ae25 843e 016a 5b3f
8594 23be a863 233f b1cd 123f 6ab0 54be
cf69 023d 6839 82be 93cb c0bd 70a1 01bc
92b2 d4be 4985 1fbe b45f 433d b1ea 4bbd
4527 95bd e993 83be e70e a3bd e2a4 c1bd
10a7 ea3d 2bf9 e23d ae7e 363e 802f aa3e
23c0 563e 54ef f5be 2f03 1cbe 41df 823e
d396 733e 25f9 97bd ed33 923e d229 a93e
d5de 54be ac32 9a3d 91fd 05be cead a0ba
dc5e eabe 6b56 bc3e 39ff 453e 999a e4be
4469 57be 2387 48bd b28f 93be 15e4 9b3e
1872 7e3e fb54 923d e9c4 c23b 8842 26be
fae4 cabe 3d62 32be 7194 95be ae1c a4be
b2bc 953e 386e 1d3f df57 4dbe 3507 f43d
2e6a 27be b489 b53e 7321 afbd 0d5b 8e3c
6d4d 82bb 32e1 503e a78c fabe c92c 413f
b736 f3be c28c 37be cc2c 94be be91 a03e
4611 7f3e 718b 0a3b 4ad2 5a3e c1f6 553e
9560 82be 5145 aa3d b0d0 5a3e adc1 113f
3275 f73d 2914 2a3e ca27 ae3e eb4f 773d
1e8c c63e 67c7 dbbe c221 a3bd fe7c 6dbd
3c5f 743e 0e16 f23d 2056 90bd ef61 e43e
7433 203e 72db a23e f692 dfbd 84aa ffbd
9601 fbbc e6d3 23be 6039 5fbf 5257 54bd
ddc3 b7be 5754 223e 8081 8abe 615b 1e3f
0742 213e 2f5a 8abe 7293 94be a3b0 ff3d
3448 a1bd 0bb6 9cbd 6780 4cbc 74c5 67be
79e6 323c 4dbd 173e 547d 81bc 0813 523e
12fb 4fbe c8b5 9dbe 219c 38b9 f3cc 88be
0511 0d3e 9012 b3bd 26f7 a13e d402 923e
8231 f0be 6a53 d83c 542d 9f3e d2aa 9cbd
9760 363e 4c43 293f 1bb9 a2be 6150 223e
5088 b4bc f072 d6be d614 cb3e a2f5 47bd
3a8f 8f3e f4ee 0fbe 32ed 36be 59f1 bfbe
116b b73e 465d 15bd 3c79 f5be 7443 2d3e
daa5 38be 7f84 bebe 3643 0dbe 5525 e2be
e1aa c13d 2c50 be3e 340c efba 60ca b1be
f74d 26be d780 0c3e e009 12bd 8349 963e
b802 0a3f fd27 8dbe e5d9 7c3d 53a0 963e
7685 fd3d 5502 04be 776a 82be 1148 dc3e
7343 a93e 3945 bb3e 1506 073d bd8b febc
0bdc 1b3e 73e5 dbbe 37ce 1f3e 789d 023e
e23a 62be 1cad 503d a40a 52be 8308 92be
9c8a a5bc f651 cb3d 72ad a53d 2df5 65bd
4adb fcbd 52ca a8be a37f 413d 81a8 743c
d5f4 22be 4314 21be 0e22 0e3e 884a a2be
61a4 873f 6d44 e63e 72e3 e83d 65ef b73e
4b03 e23e 9bf9 aabe 91d3 943e decb b33f
99b9 8dbe 88a4 1d3e ed3b 38be 635d 883e
071c 17bd bf44 1f3e 371a c6be bd4e 0c3e
68bf c83e 4b75 c8be b2aa fabc 8f2f 44be
227a 88bd 0861 7e3e a4fe 5c3e a191 05bc
8736 b53c e545 b13d d506 763e c5bd c73e
fdc1 b33e 5574 4fbe 1477 89bd 183f 8abe
2e95 1c3e 5dae a43d a91a d3be 7d52 203e
9163 bebe c88e 043f 9a63 073f a063 f53d
c4e9 ef3d 1b67 8dbe 98bd b9be bebb 23be
2763 28bf 963f 5d3e fa4d 2a3e 04ea 90be
a8f4 2b3e 39dc 953e 0dee 6cbb 4bcf af3d
b0df 863c 8868 0ebf 01fd af3e 68a1 b53d
9697 de3e 27dd bfbd a498 d63e 5065 9abe
6d59 863e 9824 3fbe c9b6 e63a aff9 adbe
45da a23f bcf5 39bd 4b52 0abf cbc3 c63d
d03d 153e ed54 4cbb 8d4f 353d 8b44 b4be
7dae e8bd 61d1 243d 6b02 213e 755d 34bd
4325 8ebe 4176 5cbd 687b cbbd 87bd b73e
7860 b53e 7999 8ebd f65b d73f caf6 efbd
b7b4 b6be f96c 24be 5ec0 b43e 09f5 b03c
9dda 233c 9aaf c83e 3739 a73e b517 0cbc
7020 3abe d376 03bd ae2f c73e d22d 55be
d303 a03e 4f45 54bd 4f2a adbe 5794 71bd
9910 853e a6ae f7be 8376 d83c d9f0 f03e
9df9 91be 7eac c33d 0b46 f73d 53c3 33bd
9c73 eabe 33d9 afbd 1db4 93bf 7ccc e63d
225d c6bd 5dca ae3f bc57 503d ad65 51bd
7834 50bd bb21 ed3e 26d5 9d3e e32f 793c
63ae ad3e 76bb 1fbe 1252 3abd bc28 3cbf
6f60 c83e adf7 9fbe 9a08 fcbd 9f10 9b3d
44bf a43c 129e f03d bd6c a33e 6ef3 aabe
eabd 233e 246f b23d ba36 593e 9399 c3bd
0f77 9f3e 83fc 0f3f 9898 2b3e 766e 41be
aed8 c9be 1618 80bc a37b 6d3b b594 e03d
7f02 6c3d 9106 c13d db77 a3bf 03d6 643e
a94a 4ebd 6579 723f 5504 5d3e b636 97be
ae2a 353e ca00 8bbe 4521 883e 725c a83d
0bbe adba bb79 5cbe eea3 813d 60d5 6d3d
a23d d9be c0da d83c 965a e23d dd58 1240
b7be 6bbc e01a c5be 0b3e 943e c004 3d3e
abc1 c73d 7814 11bf ce50 1ebe 1e51 67be
e9f3 cf3b 1cbf 233f b24d af3d f7fd 303d
669d 8f3e 6fa5 ec3d 576d 2abd cbc6 96be
e315 a1be 015c 26bd 5b1c 4cbe 2d72 423d
7df3 cd3e e481 8bbe b16c 603c ff32 78be
228b 773e 48d5 00bf 1b34 ed3e caea 37bf
4698 033e 98b1 b53c 58de cf3f 9e0b 1c3e
3c91 8fbe 2671 72be 0068 1ebd 9b28 cabe
ee20 cebe 865a 34be 5a4f 67be e336 3abe
525e b6be caa9 bf3d 35b7 93be bdd0 48be
542b 97be fe19 3abd 7053 25bd 57b4 61be
a5fd b0be edd0 6ebe 7a34 703e c7f3 93be
c2fb 32bd 5147 cd3d f8f5 e1bc 51e5 183e
353a 9a3e d7b8 adbd 4e22 603d 789c 533e
ea53 e8be 528d dfbd 58e9 29be d2ad 24bf
0721 fd3c d5f9 d53e aaa9 3ebe 273f e53d
15a0 bebc 2f19 ccbe e8d2 cd3c 89bd 81be
694b e73b d4c5 813e 75d0 39bd 9e6e 3ebe
5d04 2f3e 6a7b fdbd 689c 00bd 65a2 bd3e
7f1e c2bf 1ff4 88be eaf7 6dbe d3dc 58bd
2ec9 e2be 32bd aabe a024 b63e 7ae8 a3be
a368 e73d ff2f ac3e bc38 bdbe f361 673d
c50b 303f 44fa c6be 1540 f63d 0e53 823e
5e2f 0dc0 abf6 4d3c af3b 4fbf 9865 9ebe
31f7 09be 578f 833e b222 ea3d dab1 bfbe
4534 8b3d 560e d83e 9bfc a03d d3c3 e13e
800e a13e 6dda 693d ed8a 82bd 73d8 c8be
989c 7a3d b700 373e 38f5 153f d86b 9d3e
8bdc bfbe 4c3e 093e 1990 81bd 0e97 4e3d
9858 163f d6c9 553f ef88 4dbd 7a20 a7bd
6492 24bf ad17 b73e 6152 ef3e 2103 253e
5cde 853e e88a 30be ac29 e9bd 3be0 80be
816f fdbe 446c 8dbe a9a6 9c3e cb6c c0be
68b4 133e 4a6f 023f 2fb8 65be 12f7 803d
3c26 a7bd 64de bfbe 1058 9d3e 474d fabd
cd1e 4d3e edcc 1cbe 6221 9abe 2096 46be
2b42 743e 4fb1 b73d e667 c3be d2c3 d9bd
3fa6 913e 67df 88be 4022 3ebe e3c9 a8bd
b315 a5bd a983 6dbe 5d37 f43d 2877 8bbe
9702 a63e d18f 773e cc80 2ebe 18a0 4bbe
6926 aa3e eb92 90be 7599 2d3d 6669 a83e
d0a6 8c3d 7520 0fbe 980d ea3e f2b6 00bf
faf7 d73d e88c c23d d8f0 ce3f 922d 213e
825d b6be 346d 11be 86b6 0fbe 72dd 98bd
deba fbbd c326 debc bb83 ff3e 9be6 f9be
67a4 b93d ded5 383c bb74 93be f486 93bd
1a54 5bbe 6ba2 6a3e c682 21bd e0ec 2ebe
fdd6 91bd 2e30 cebd c9a4 0f3d c0e8 a43e
0f37 37be aebe 773d 6efc 0a3f 383e c9bd
37f5 aa3e ef39 9bbe 61b1 03be b146 6f3e
fea9 cb3e 7683 19bb ffc2 873e 1a45 e2be
49f3 823d 9ffb 67be 64a1 c73f 8f79 463e
7bda a6bd 901b 8dbe 7185 66be 0f6f b63e
4b7a ad3c 94b3 243d 015f ef3e fbc5 8bbe
eee1 823d c810 c03e 9db1 ebbe c695 05be
45db 7fbe b0d1 9bbe 00ee c53d 8cf2 603e
3dea 28bd eee5 2bbb 02a3 193e b508 5fbe
a0db f13d b14b 383e c956 683e bd9f 8d3e
c27c 633d bf9b 80be eb76 b7bc a39f 8d3e
55d2 d4be 79d1 6f3f fa4f 08be f61b d83e
4412 173e 17af a63d a553 91bd d8e1 22bd
2bbe d53e 4b6d 3d3f 7e59 cabc 642f b23e
d73f 583f 868f 7abd ad10 93be ba58 f1bb
7380 15bd 560f 96be abd5 59be 55bb ed3d
9811 8ebe 1ffa dcbe 7981 7a3d 3ba6 653d
8f17 2bbe c470 a13d bfb3 aa3e b37d 153e
9167 e03d 4c9f 6e3e caa1 2e3e cdc2 363e
29e6 0dbe f275 bdbe dfd2 423e 30e8 f63d
db6f d63d 6c7c a7be c06c fabc 584c 9e3e
349e a9be 4678 71be 7635 c33d 2d3b a73e
56be dabd 11c2 15bf f6ee 4d3e 73b1 9abe
ce42 a03d be83 bfbb 394c 9fbe 8765 debd
4849 b0be ee98 d73d b0c8 b53e 88a8 5bbd
dc71 71be 6adf c5bd 3f8d 8d3c ccb5 61be
cd19 37be f368 483e f79d c43e 3c66 3a3e
7f9f 353d bbd4 cd3e 1f70 9dbd 5b96 053e
d280 c43b b80f 91bd 73c7 973d 8bee b03c
4aa6 edbe 5362 27be 70a2 8dbd f1dc 24bf
4518 2cbe 307e 5abe 6fbd d9bd 60c0 c8be
84a5 b33e 5c2c 423f e032 3b3e 971b e0be
4199 de3e a112 f2bd 20b8 a93e 2629 d53e
1376 aabe d645 fdbc e707 07bf 1443 883e
fd79 6cbe 12c1 acbc 1dcd 873e d0cf d83d
7698 00be ff8c fbbb 5dc4 dbbd deee c2be
3f01 8a3e 4dad 31bd e33a b0bd 2318 21be
ff07 9dbe 44c0 9ebe f46c ad3e a05f c53e
a60b 963e c00b 4dbe b890 dfbe 4166 83bc
b05e 08be 00a4 843e f59b 163f 3f2c 073e
4803 a4be 2671 32be 8759 83bd e026 fcbe
3df9 87be 64a2 03be 2bb5 bfbe baf9 74be
530e 6ebe dcb6 473e d7cf ad3e 0ad8 99bb
37bd e1bd 85a3 253f 37f1 f3bd 7577 ad3e
0149 a4be add4 0bbe c2d5 02be 6078 eb3e
19ac 943d 7b05 033f a96a f9be 9f63 ab3c
2c62 0dbd 4265 a83f e438 983e f070 f3be
9373 be3e 2ecc bf3e 20dc d53e bbce a13d
0d06 a9bd 3a66 bfbe f96f f23d 17ec 423c
6940 8dbe ffac 72be fc29 71bc d0d5 71be
ffaa 7dbd 66a1 a7be 6fb7 cd3e e70f 96be
44e7 a4be 773c 8b3d 8e46 c7be a159 823d
8f25 05be 8e5a 98be e1c0 223a b9b5 eb3e
3854 63be 283f a33d 6ce7 c6bc 0411 643d
85fa f1be 6632 04bf 33d5 323e 92ed 99bd
db91 b1be a0f2 283f a494 b63d afc6 42bf
e3ef 383e c82d 59be 28b1 9f3d 685f 83be
ea9c 3d3d e44c f0bd e242 32be 8719 82be
1887 7d3e ceb5 cbbe c27d 863e 2d99 8ebe
0d46 843e 516a 58bd a4d9 31be 61e0 013c
1a46 66bd 49fa 923e f562 9fbd 78b1 92bd
7401 3ebe 8ce5 f43e 2e8e 36be 3051 973e
6348 f43b 58ed 093e 6630 1abe 878c 89be
a0c0 1e3d 7ef1 593e 4917 723e 1953 9c3e
ea5e df3d 1324 24be 1c99 553e 109f 483e
b22e 8fbd 7e60 503e 9245 743e d1b7 8c3d
b5c6 1d3e e019 e9be 2a53 8ebe ee9e 72bc
60b0 38be ab8d 9abe fba1 a03d d2b6 f13d
4513 a1be 760c 363e 9022 cb3e 9e39 26be
96cf 263e 78cb e6bd 0038 023e abc3 e4bd
935f 9cbe f0a0 fe3d ab9f e1bd c6e9 3bbe
ebc9 f1bc 56b1 cf3c debf b3bd df6a 0ebe
66d4 b0be 6306 6a3e 6d3e 8cbd b507 b43c
9230 e83e 3e7d 92be e1f3 ce3d 44bd b6bd
cddc be3e 256b 3a3e 1fb8 833e 83d1 b33e
e5e8 83bd 4f05 acbe 2bac 91be 109a a33e
5f77 bb3e b130 1f3f 52d6 bebe baa7 703e
4011 ba3e b4fd 023e faa0 a53e a250 5abe
9c64 62be 09e1 edbe 7883 eebe 8f6c 73be
0040 cabf dbd0 d9be 219d 243d 30a4 dcbd
8761 1e3e bf16 59be 2999 4cbe e8b3 00bf
4077 123d a07c 9b3e 0e20 8a3e 80d1 903d
d5a4 d43d d730 3ebc 70dc 403e 696f 303e
3793 8bbe 9b75 353e 4c04 38bd 9214 d53e
9951 3fbb e2cf 1bbe 8c53 2bbe aa9d ed3e
1e87 4bbe e234 8ebe 863f 0e3d 9991 85be
1e99 db3d 2812 0fbe a2b7 7fbe 582b 54be
5b65 69be aeed 843e d31d 51bc fa6d d73e
dae2 a4bc 2a8a 0d3c f05e 08be 261d c3be
79aa 7dbe df83 6d3e 1292 df3e ee6e 5abd
783e 1b3e e9d7 9bbe efb5 7ebe 34e6 09be
783e 83be 0881 42be 7338 a63d ffd4 673e
747c 9ebe dee1 813d 7437 933f c472 c13e
1153 8d3e c6a9 2b3e ba1b 67be 346a 9a3d
c358 5c3f 1ff0 2abe a1bf 01be 68da 293e
5ef4 513e d923 57bc c2a8 bfbd b504 6bbe
6440 493e f5ca 5c3e 635f b53e d0c2 a83e
20d7 1a40 47ab 74be f43b 19be 46a8 a3bd
a67c 5f3e e6e9 68bd c23f 5c3d 1f1a d5be
af96 e03d bf26 a1be ec41 683e af7a 9dbd
bad0 223e a779 25bc 2b4e ecbe c10c 9d3e
ee9f a5bd 2f70 e93d 705b a4be a9c1 be3d
e7de 82bc 1cb3 afbd a9dc 25be 16bd 29be
865e 163e 94be f6bd 54f2 b9be 7758 39bf
8c7b f9bd e147 abbd adb0 d13d ecd8 09be
a6cb 2bbe cc65 31be d60c 6ebe e0fe f43d
b23e 483e 39b5 b1bd b516 8e3d 7575 44bd
f846 d1be ccbd 75bd dbd5 b13d 1042 143f
d32c eebc 0659 6ebe ea87 85bd 8124 473e
3c8c 343e 6f58 ac3f d524 93be 94c5 97be
06ac bc3d 60dd d83d 4cf6 993d e09c 803e
3620 adbd 00a2 3ebd 6054 d4bd 2bee 11bc
d626 bcbc 5f52 403e ca7b b03e 6c77 b53e
adb5 7b3f 1460 3f3e cb74 a63e d21b a7be
98b4 cd3d bae4 753e daab 0dc0 c63d dd3e
7630 1abe 46c0 15bc 659b 16be 9e0d 7f3e
5c16 4dbd ac3c c9be 8630 8d3d bb58 5e3e
1966 8fbe 7820 dc3c a8d9 473e 77fd cb3c
1d4b af3c 3d2d 97bd 5eda 33bd ff48 b0be
e190 76bf 5570 7d3e 8d13 c93c 0eaf cb3b
736d ac3c 9c3a ec3e 1f87 6dbe 8eb1 163e
56df fb3e c2d2 ccbe dff3 0cbe 00f0 3dbd
edc0 973e f259 15be 1fc6 5c3e 3062 c5be
aa38 85be 5eda b83e c294 49be b60d 5cbe
b3dd ea3d 1cc2 f13e 6b7b 333d cb2d 213f
77fe e8be c29c 1e3e d2ed 69be 06b8 023f
4ea8 eb3d 9c51 43be d469 2a3f dfa6 cabd
a1ad a43e 5156 cb3e b602 233f bb86 e63e
9087 bbbd 70c4 1fbf a790 873d cba5 25bf
e063 0e3e 4626 5c3e 088d d53f a73e a33e
bf72 45bf 20a3 1a3e 4061 18be ffb3 a33e
1549 d9be cb85 45bd 9c1e dfbe 676e f83e
c2a3 2a3e e2d0 d53d 19c6 b0be 67d6 39bd
cb4b b03d 55de bc3c 5fa3 28be 4bf2 243e
7ffd 8abe d686 a9bd 3c46 a63e 27cb c2be
a5a3 183d 3a54 5dbe 1459 653d 169c 9fbd
c98f ab3d 4655 a2be 716f a3be f5fa 443e
04a0 fe3d f39f 823e 4ef7 16be 028a ad3e
2410 b43c 7844 b63e eac4 d1be 8372 d73d
d6a5 14bd 3ef8 73bf 836e 903e 8c0d 093e
ebea 003f 5b9f bfbd de2e c33d 7f40 8cbd
0c9d c33e dfb4 983e af83 0cbf 2b30 8bbe
fff8 18be 5027 3fbf 6548 f33d 21e9 283f
0d89 cebe 7f42 033e 303c 563e 4332 d7be
3ff3 e63d 6b1d c33e 0393 dfbc c31c 683e
0e02 623e 18ee 25be 4d7e 2b3e ad0c 90bd
0624 f53e d5d0 60be 29c9 51bd ac6b cb3e
f77c 7e3d e875 863e a271 07be 6d79 0fbe
0ca8 37be 22fa 293f c2b5 91be 428b 66be
ae11 023f bc63 193e 803c c83d f155 e23e
9eb1 f03e bc10 9b3e 1bcc eb3e 5f34 2ebe
797b 353f 504f a33e d5da 0cbf 3bd4 12bd
10a5 8bbd 0156 35be 3315 3d3e 1f8b a43e
f0fe 2b3e ba2d 483d 3257 eb3e b7ff 093c
2e34 a9be 116e 71be 915a 4a3e 5ca8 dbbe
57f1 9e3e dffc 913b 9423 a23f 2bea 123e
eafc 9ebe 2ebc 763e b8ba c5bd 099a 0d3e
a7f9 523e 127b b83e 040b bf3d 9193 863d
a0e0 033f a843 c3bd 5783 dc3d 290d 99bd
cd24 123e 11bf d4bb 101b 713d fdfc 2d3e
4f3f d23c cf95 4e3e ee44 ebbc 2c4d f8bd
2b28 76be 59d2 02be cc32 903d 2c3e d6be
71ad 2fbe 9ce7 6bbe 8c6d 9abe bcde 37be
69af 1c3b 275e 8fbd 4c0c 10be 3f73 a8bc
24ba 1a3e c2cc 803d 86b1 c7bd 04cd 223e
e807 8b3d 6484 c93e 3426 b7bc fb06 833d
4d4c e0be 1f52 9ebe 3f57 763d 088a 093e
4dda c2be 579d 5abe 04c4 e53e c7aa 09be
0678 ef3d 82c1 8c3e 6bd5 8abe 1635 16be
4454 6bbe d721 bebe 3da7 b13d 4a1f aebc
7632 a4be 7a77 93bd 8939 a43e 0a0a c93e
ec56 8b3d 7400 b73d 7ca7 8c3f 80f6 6d3e
2f55 a93e f9b2 38be c427 40be 0b8c 39be
1fca 2cbd ef08 0a3e 1e3d 4a3f 74cf 3e3e
a4c3 273c 5825 073e 207e 9ebe 6113 9b3d
2008 7d3e 94dd e83d 85db 8ebe bdd4 b83b
798b e0be 354e 583e c51a f1bd 5791 d53f
53df 42be 5ef1 c9be 55df 4ebe c9c0 d5bc
42fe ec3d 1820 38be cbc2 3bbd d574 b6be
e8d7 9cbe 3a48 d33d c14f 843e d59e 453f
2e10 7e3e 95a0 0340 6d20 ae3d 366b 86bf
b60e 113e fff3 b53e 3cf6 70be bca4 183f
9ba1 78be c55f b93e 2108 31bf 9266 553e
7d80 1dbe a33d d6bd 45fe 60be 096a 3bbe
aaa0 2dbc 1f6a 8b3e 3301 073e 7954 a3be
c22a 673e cd3d 0b3e 0ee7 043f b303 40bc
91d8 91bd f8b1 2ebe f815 7ebf 2b2a 893e
a57c bcbe ae82 b23e d923 293c 949c 913e
ba4d 8cbd dd15 973d a616 ef3d ea04 1a3f
6ab2 42bd 2576 efbe e6b3 353f 076d a7bd
1abd 1cbe 6d00 953e 4e1c 86be 04a3 993e
8be3 d6be 6304 46bd f73a 68bf 6fe3 ec3c
b472 09be aa9d 2a3d 845d 65bb c53a 0c3d
6535 873e 02f2 edbe afc6 51be 302a 52be
391d 86be c5b8 dc3d cf97 1d3f bced 9abe
b9c9 a43d 2aef e83d 56a1 aabe 4315 7b3e
8a0e 653e ecd5 32bd 0754 82bb 00b5 2a3e
dce5 9abe c071 1c3e 2f2b 433e 625f 3fbf
40a3 ed3d c030 b13e e711 053e 372e 1abe
45ba f0bd c03d 9d3e f593 953d a30a b13e
30b2 43be 9de1 c53e 6269 63bf 9266 09be
502b 49be ca35 a2bd 1c29 98be a2e1 89be
8a12 ee3b 3a03 83bd 2c30 c73e 5f0f 77be
ff36 83be 2747 24be ceaa 7fbe 31a7 c4be
2480 11be b9b3 793e 173d 0c3f 8097 01bf
ce1e 013e 4335 563e 0c51 b23d 1cc6 15bf
d15e 133f 2c35 8f3e 224d afbe c43b cbbe
16ab b2bd 3abb 86be ab7c 133e 0082 04be
533e 2b3e 8801 a0be 51df e2be 004f b23e
9228 523f ed65 26bf f3f7 663f 6b8f 713e
d8ef 7fbb c917 0dbe 514c 063e 9f5b b7be
f655 e8bd d371 9cbe a01d 1d3e 29e0 e1be
c408 3c3d 9ccb 59be d6b8 523d f65b aabe
912f 34bc 44ab 2d3e 956d cf3d 48c3 0cbd
3154 743e 45a1 61bd 5970 303e 9fb7 02bf
582d 2d3e be47 173e a2c5 3abe 2051 d7be
7a83 973e 91c7 b33d 203f 4dbd 6ffe 8f3d
9862 37be dce4 89be 8e40 22bd ce95 67bd
7cd5 8e3e 262b 343e ec1f 22be 2ee7 fe3e
aafc 543d a8e6 b33e 2e68 88be 4f24 9eba
6951 91be 9f2d 01bf 048e 433e b6ff cabd
7b15 f03e a2c4 e8bc 7370 de3d 925e 86be
fed4 313e 76b8 ea3e 0539 96be d10d d43d
34db 0fbe 5080 8abe 9f01 57be 2898 3fbe
f32e 7abe 4ad6 b7be a747 7d3d dc6e acbd
97f6 92be 76f6 163f aa8c e93d bda9 36bf
a6b4 39bb 337e 0b3e 68d1 0fbe 73cd bf3d
04b2 56be 1795 4abe c9d4 15be 3eee a5be
1a9a 16be f0be dfbd e611 1abe ee36 b0be
39bb 92be 7bc9 afbd 7312 1dbc ccc2 563e
25c2 2dbf 91da 6a3e 9fc5 bb3e 2260 81be
087e fdbc 6bb8 64be 678a 8abf abfb f23e
583a 213f 8794 3dbe 46c4 77be ab8e babd
d413 713e b7fc 17bd 45b7 493c 3cdc d03e
8fec e2bd 870d 6c3c 9892 d53f 876b 6f3e
240b d63d 785e 973e 46ce 31bd 5bda 56be
ca32 a2bf d5a9 c13e 5ed5 bdbf 0d74 c03d
75f4 dfbd ddc8 13be d5b3 bf3d f6d8 93be
d911 21bd f6b8 153d b61f 2ebe 330e 803e
eb70 10bd e63b 83bd 2b96 ffbd 811c 2ebe
d67f 523c 30ff c23d 3e2c b53e d644 e13d
8fbc eebe 8acb 5a3f bbe5 0fbb 1f96 173e
6a30 273f 3a45 433f 46db 92be 9995 e23e
5229 b6be 8ce1 8fbd abac c63e 68f1 adbe
da86 d93d 94fb 85be a81d 49be bc0c fb3d
f6c5 573e b482 52be 4165 74be 4a0d 3f3d
767c 353e e569 39be eca6 7b3d eaa3 8a3e
1ba3 afbe 6026 a83e 969e b7bd 9a5a b63e
53d1 81be 77a9 b33d 53a6 8bbe 2143 b73f
c788 3e3e dca1 abbe c028 60bf 8297 0a3e
e339 793f 4ff4 9a3e 7d57 a9bd e094 bb3d
ff9e 333e f81a d53c ef00 663e 075f ddbe
53e9 fdbc a472 c2bc 2c5b 5ebe 1522 8d3d
c097 1c3f 528a 46be 103d 013e 938c ed3d
87be 83be ad0d 553d e0dd 54bc d356 923d
4007 873e 99e2 5cbe 39b0 86bd 2130 873d
a7a1 083d 637b 813e 8eb2 20be 30f4 f7be
f821 d9be 850e e8bd ce3c 8bbe f8be c53e
f4b5 aabd 963a e63b a61f c8be 41d8 f63d
af20 b13d 121d 4ebe e808 8c3e 2cb5 e93d
de4e 2cbe ff40 533e b5a5 623d 51da acbe
ab03 93be 0427 b63d e856 7ebe c1d4 873d
00cf 63be c6f7 e53d d891 9c3d 4a42 80be
c6cf 2dbe 0f24 203d 2700 be3d ef39 b2bd
60a1 863e 0a24 de3d 886a 8dbd abe5 283e
d5ef c93e 75a0 e2be 7d20 4ebe f370 a53d
b876 c5bd d68c f93c 7885 df3e 24ee 4ebe
5212 e23d 93f5 be3e d0f3 b43d 3b0c e4bd
d3d2 45be 0c4f 5fbd 606d 58be 4f65 c6bd
7b4d 49be a6bc 333e 1bc1 70be 630f 8cbe
c140 b63d 920f b2bd 1c5a 353e e5c4 fbbc
664b e9be b4a8 24be dac0 8a3e 2134 4fbe
dcf4 333f e8ae 1ebe 0dbb 01bd 1adf f93e
fd41 773d 1c8f a1be e54e 3a3d 6b80 bcbe
bc88 6ebe 1727 4dbe f925 343d e4af 6fbe
6145 5dbd 37a1 b53c 8ba8 18be b1e5 c0bc
bab5 ee3d 3f92 b63e fbf8 883e fea6 6d3d
fc4e cf3e 9e6a 343e c37b 853d 7e6a b0be
4ef5 4f3f d772 03ba 6d3c 05bd ca0e 5fbe
92e9 6d3e 17ab 9abe 20e7 813e 0ffe 9a3d
b66b 05bf 6ab2 bebd 94e5 d93d 4c59 8abd
8c47 89be 7927 553d 53dd 6c3d f516 dabd
b4e0 4fbd 2c8b a3be fa91 ccbd 0fe9 1c3e
0099 ff3d f8b7 b1be cd45 963d 54b7 9fbd
8e57 6cbe 8289 04be 8787 2fbe eb2e 19be
711f d3bd af43 943e fdc3 d4be 9748 9dbe
2874 663e 3e6f aabe dbaf 4a3e a594 f03e
061b 50be d702 253d 864f 3ebd 5e2c c1bf
25b2 313e 95cb a1bf a855 bcbe cef1 2cbe
9571 7f3d fcb9 023e 6f46 8fbe a96c 2abd
34a3 6f3d d599 b0be c798 63be c71d 92be
7994 243e af96 4f3e cd9b 963e e812 67be
dd61 41be 9324 39be d31f 103d 19c5 653e
f6f3 4fbe 12bb 333e b26a fb3e 78e8 c0be
b78a 563d 407f 9f3e 199d ad3e 24a2 eabd
582a 523e 1768 de3f 1a12 653e c261 d53e
ab2a 2d3d 6b32 2e3e db10 b2bd ebde ce3e
3f25 3c3d 345b 823d 57eb 5ebe 4da4 383c
31b0 1bbd a1d6 afbe e79f 47be 9fe9 503c
455b 793e a51c 4bbe d449 d3bd ab1e 093f
e402 143e 2cf2 8fbe 1fa9 763c ab7b 9aba
1f51 ea3d d7fd 803e 9f04 593c 5571 ce3d
620e a9be cbc1 743e 5a25 8abe c437 953f
c5f1 d83e f014 82be 308c 113f b5af b9be
7855 173e a471 723f 4d16 4e3e 777e aa3e
717c af3e 1706 773d ed4b 27be 6423 cbbd
5f5b 333e 52ec 46bf 6ad5 9ebc 0328 63be
1b6f 443d 881e bfbe d23f 7abe cf36 42be
eb2d bdbf d66f 803e 3fcd 97bf c326 9cbe
7ca5 80be 0f2e 613e 17c4 09bc 1035 45be
6431 a73e 7cda ad3e af16 84be c7da 843e
4e63 be3e 398e d0bd 5767 f1bd 0cfb 7fbe
a15a c63d 4a26 b9be 62ea 87be 219e 463e
6fcc 53be 9a3e 82ba 46a1 833e d2f9 fb3c
65c7 7ebe e60a 1f3e fc8c d43e ab6a 8c3d
5621 333b 6751 94be 5cc0 1c3c b050 06be
d8cc 51be cb35 fdbd 8b94 ac3d e0e4 6cbe
e11c 0bbe f107 82bc e7b0 8dbe 4e66 bdbe
5598 e43d 5868 933e cb09 bfbe 7e05 903d
fa4c 943e d798 e2be e5d6 9c3e 799f 0fbc
c391 c3bc 7bc1 b93d 16de c53d 264c 71be
89b9 223e f844 823e ead6 733d 33fd 57be
6b97 6a3d c007 dd3c 73b6 84be 368b 923e
7ca8 94be 86b8 9f3d eddc 64bd 56b1 dcbe
5dd6 f43d 48ac d3bd b7d4 0dbe 7a08 863e
e4f6 133e e610 61be 1fd1 b53e 7fb0 993e
8583 a5be af13 5b3d 73ca 11bf 7b23 a0be
3857 25be 7cc3 88bb c763 6cbe 403e 3abe
3f0a 663e 4fe3 8c3e dcfd 4f3e 7aad a2bd
029c 2fbf beab 393e 7afd 49be 8653 a73f
ea00 f73e 909b dcbe 6ad8 e7bd 9111 8dbd
8633 473d 581d 92be 92dc 3c3e 5f4b c23e
2543 89be e2fd 67bd f32f 253e b814 9abe
b4e1 88bd ee6b cd3d 10e2 613c 04d7 863e
ccae 983e cdf4 c4bc 5eb3 3ebd 9d68 20bd
54ed c9bd d1e8 703e 388b 37be fe68 423e
ca14 f53c 89b0 8fbe fcb6 d3be c5a5 eb3c
3003 19be f0d7 dcbd 0f8d 2d3c 2975 cf3d
0aae 803e c206 433d deb1 f4bd 1ab6 90bd
123d c1bd f469 5d3e 8aab 893e ace5 3ebe
db2e 033c 8c69 f3bd 543f 7c3e 0571 483e
f154 a4bd 389d eb3d 5948 f1be df99 90be
c567 dfbd 825e a3be 2ef8 66bd 0153 c5bd
3290 b73d dcd9 e5bd 514f 3dba acf0 40be
753a 623e ef7e 923e 2740 1340 6b40 babe
5a30 71be d659 d9b9 7aab c13e 33d2 83bd
2eec 78be 9830 363e 8859 8cbd 7fcb 703f
bd6d a33d 2ee8 1dbe 3a6d cabd fae0 0d3e
9092 6cbd f082 a9bc 2514 ac3d f2e0 09bf
e276 8a3d ff71 0fbf 088a 2e3e e818 b83d
028a b93f 2182 e9bd 8c97 a2be 4d67 113f
1384 54bd 8c6a e13d ea5f 853f d161 12be
f00f 4c3e 9a5d 40bd cd68 843e 2585 01bf
81c5 d1be 4cad 2ebe e463 8a3e 7da7 86be
fc1f 2cbf 2270 263e ff64 273e f37a 153d
2cb0 b2be c11b e4bd 8e34 c83e e226 b5bd
f1a2 53be e96b 69bd a6c2 16bd 576d c1be
84b1 d43d e430 a23e 2a9f 8abe 853f b23e
deb0 ce3e f5d3 5c3d 4894 283d b47a c03e
6951 22be 6913 743e abc4 1b3f 495b b2be
5bc6 a0bd c8bc e7be d2f8 c9bc ee93 80be
f8a7 673e 3678 a2be c375 b6bd cd3a 863e
d41d 0bbf d278 8abe 9523 953d a116 11bf
b1b5 873d 22ef 2a3f a20a bbbe a697 ea3d
64db 763e 0011 04bf f2eb 883e 437c 8d3d
41d7 9dbc f84f e73d 41c3 babb a125 0ebe
38cf 6e3e 8eab 343e e468 6abe 42f9 683e
662e 21be 5a90 c1be a9ec 65bd 6f63 d2be
1297 b5be 8bb9 113e 0d29 e43d 8c6a 523e
3aba 95bd 9e91 c43d bc2e 1f3f c4a5 003e
625a 8fbe 1e46 b9be 25af 5a3d b1c6 cabc
7689 01be 7ff6 97be 7466 8c3f cb04 1ebc
3152 eabe b290 abbd d98f 8d3e 9069 783d
8772 68be a037 69be 2b0c 8f3e 0829 8ebe
5f54 0f3e 3538 efbd 3046 743e 2492 14bf
ce9a 3d3e d3d0 bb3d 9a05 413e 426a 4cbe
571b 41bc 5b11 cabe c9fd c2be 0ef5 803e
01ab d83c 2b68 533e 6720 223d 7586 e5be
a198 d5bc f3f4 0c3e b2c7 883d 0ace 223e
ace2 a43e d9b0 77be f3c7 5bbd 8476 ab3c
3341 bbbd f7f7 063c fb56 a8be 5f24 ddbd
22cc d7bd 5bd3 8cbe b17a a23d bb91 b63e
15a4 893d 3ce4 e13d b961 5e3e 5868 a03f
fb4e 85be 34d6 02bf e30f b03c 381f bc3e
b700 d33d f651 523e 4895 8fbe 3f7d d13d
e6d1 99bd f636 563e 37f0 0bbe 072d 92be
08ce 8bbe afa7 8abe 6ddd 7cbe c90a 5bbe
79df 153e e7d4 bfbc 6c0a cf3d 3ee9 d4bd
b499 95be 109e aebe 4fbf 943e 0e64 1bbe
aecf fe3d 323c 49be e0fd 973e 1ff1 553f
02d5 7d3e beaa bb3e 0300 70bd 14e3 f6bd
85ee b93d ed2c 433f 63bd 253e ab44 c6be
ec89 c23e 6ba6 a23e d635 08bf 116a 383f
4e81 8f3e c083 353e 1d96 cc3e 5474 27be
a7c9 ae3e d583 c63e 0a91 b93d 2f49 fbbb
a463 0dbe 947a 43be 172a c8bc 6805 8d3e
ffd6 393e 2283 993e a414 9f3e e85c 1abd
6e43 863e 2545 8dbe a78b adbd 1842 2fbe
503a e33e 895b 00be 9374 83bd b2a3 523f
5486 a03d 4e9b ab3e 1caa 41bd 2247 35bd
9b3d 18be 79d2 a7be a5bf b73e c544 063f
1b6d b03c 3092 b9be b750 69be d996 d13d
587b d73d 150d dd3e 7200 15bf df6f b8bd
34f7 403e 46f3 c93e c1b8 b0bd 0ff6 253f
ae10 86be 895d b83e 4a20 b73d 0654 f0bc
4088 24bd 4b0d 13bf b64b 5abe 7dbd 95bd
6c49 13be 8782 bfbe 3df4 083e d380 683e
078e 68be 9bbe 67be edc5 9a3e 4bf4 11bf
68d9 bb3d d154 bfbd d3ba 993d d4d4 2dbe
191a 893d 25ee f5be 67ca 13be 9f51 d0bc
07ef f5be 19e9 1c3e 6c83 833e bbf6 233c
7829 9a3c 9057 debd c954 a4be 9d94 32be
e05b 70bd fb0c 97bd 6336 cbbd 9135 ffbd
089c 13be f88d 9dbe f0d7 1c3e 4532 88be
7a40 193c 36da 893e acf0 c43b 2425 c23d
e2ec 683d 67c0 22be a981 093e b86a 2c3e
d9af 30be 35de 993e 3def d6be de60 c43d
59e9 09be f2c9 44be c423 97be c0bb cdbd
b2dd 803e d309 bcbe 2558 f0bd 7f9e e5bd
ddf7 a63d af8e debd 5036 d5bd b388 26bd
74be 3b3d 9d9b 37be 4cbd a63e aff3 02be
171c cd3f d09b 6bbc 33d3 95be f58f 8f3e
ba90 ae3e a673 e4bd 79d8 1a3e 463b 52be
ed57 b83e 5228 923e 9c0b a7be c079 4c3c
b5a5 a4be 063a 39be 7bc6 633d 7775 993e
cdcc 443c c795 8ebe b769 c23f 8d56 b7bd
a602 babe ca09 173e f7db 843e a77c 133b
d602 363e 954a e0bd 0c2a cabe 6983 64be
afbf c2be b5ab 503d 5caf 1bbd e96d df3d
4707 78bd e6db bcbe 2c78 d2bb 62a0 31be
4bb7 00bf 7af4 f0bd c9d3 2bbe 3da9 4ebe
0445 8dbe 7235 b5be 070d b93e d0b8 44bd
bbc0 8dbd 7bd1 e2be ab57 ae3e 0527 943d
1cb3 72bd 4040 7d3e 7212 9fbd 0d89 0fbf
7dc8 263d 1afd 61bc 56cf 303c 5e98 d93c
5df2 c2be 00de 903e 8f4e dc3c 181a 323e
6fb8 6abe 82bb efbe 1c21 003e e980 06be
1402 7abe fcb8 8b3c 946f 013f d8c6 5abe
de2a 063e bb07 603e 5847 80be 015f c13e
a56f 61bf a055 9ebc 13ed 2fbe 10c6 df3c
e06d c9be cff6 87be 4425 babd f3f7 c4be
49fc 903e 2a88 b4bc 9f4b 293d 2cc1 4abd
63f2 f3be aec6 ecbd 7574 2a3e 0499 bebd
a06b 0ebf f4c5 203e 2328 5abd 22e2 9c3e
ba9c 63bc dad1 b73e 68dd 21be 7c44 4b3e
34d2 b03e 0d57 aabe 6694 b13e 0b8d 903e
b304 41bc 3d7b 313e badb 60be 60d7 593d
cd33 9bbd 1a9e 0a3e a42c 3ebe c127 7a3e
7ec4 373e b59a 7abe 620d f93d 89cc afbc
7ecf cdbe 4d62 183e 0366 893e 0c9c 5ebe
92dc 633e 5ab7 11be b112 703d 7d7c 66bd
afbd f2bd 0e24 88be ea31 02bf 511e 3f3e
2793 1fbe c9a9 40be ef36 913b 5cea 73be
a1a0 243e e21a d43e 1a21 6cbe 8a52 1cbd
449b 57be 61cd 9abe f7d5 32be ea8e 0abe
adea 2bbe a922 da3d da16 0b3f faf8 d0be
e9bf b3bd ca48 d03d cda9 053e 34a2 97be
b879 61be febc 41be c6ef 67be 65d2 19bd
e10b 37be cd53 5cbd 3827 783e 06cb f53e
bce5 3cbe 43ac 96bf 897e 593f 17cd 6ebe
323f cf3e 2d91 413e bf77 acbe 50d3 913e
ee72 cabe be69 503e 8a6b 7b3c a2af aa3b
dcce 98bd d14f ebbd 28da 003e 661d 093d
b24c 0e3e 8516 6ebe 7f62 043c b7ec 0f3e
f747 5fbd 0b5e 043d 83dc 003f 7e50 adbe
862c 343d 6d99 a8bc 5512 953e a3b6 59bd
3822 7e3e d50d f73d 919b e9be 2a38 52be
11de 873e 2782 503e c13b ce3e bda5 283e
d2d2 85be fbac 063e b8fa 07be 73c3 f13d
2e74 debc 0559 8c3f 4ece f5bd 6466 d6be
9dcb 433e 91ec 073f 9bac 45be 798c 1a3d
cc14 28bd fefe 903e ba2f d6be 4b08 dbbd
d119 3c3e 9cc6 ebbe f7dc c63d c19a 733d
2261 d23d a563 43be d11d bbbe bf20 3b3e
0449 c0ba c752 e73e 532b e93e 876b 4e3e
8652 36bc dce0 173f 3c7c f93b 2aef 133d
0ca2 33bf b369 473e 2575 e5bd 6a03 78be
91e6 88be 768d 443e cf7c a0be 4b04 673d
7270 8a3e 83db 0ebe b298 12bc 068b a2be
06a3 923e 7b06 893e b617 20be 6ad0 97be
c297 e3bd 57ff 4cbe c9e5 bf3e e25d 1c3e
ecb9 5abe 42a0 fcbe dfaa a6bc 9965 c0bd
2cf6 95bd 2f62 75be 3d96 d5bd 5c36 093e
8453 dcbc b003 a73e d166 05bf e33c a0bd
ed12 973e 043b 89be 96d8 133e 037a 943e
f154 9e3b d0f6 8c3d 687a e03c 8244 343f
a49c 32be f1d9 9b3e aee0 c23e 83de 66bc
c87c 9fbe cce2 213f 4860 dc3d 0d67 5cbe
ba95 d9be 4a07 183e 2c5a a43e 7dc7 81be
c89b ba3b 63ac 203f 5365 b0be a54a 2b3e
e9e7 0e3d 433e 313f aa48 8f3e 8148 9a3e
af81 423f 80be 5c3d 873a aa3e 5200 e73c
b903 923e f3b9 3d3e 742c 563f 5d36 bcbe
4454 553e 1b30 1b3f 9ee7 cc3b 4b2c 8cbd
53fa 66bd 6f0c e43c 3f98 ecbe 9c29 dd3e
5447 fa3b 6b8c 903d 6c15 343f 6ec3 2cbd
11d2 b2bb dbd8 27bf f711 d33e 9986 edbc
b807 9fbe 0dce 5e3e 033f a13e dc8e 7fbe
e6c3 983e 51ff 053e a367 27be 54f8 473e
efd7 d03c c49a 6b3e 09cf f9be fd89 963e
7f8c c7be aac7 ff3d fdc2 823d a4ae c73f
1697 923d 128c 4ebf 9cef b0be 8c4a ddbc
79e4 bebd 4e54 86be b7f1 33bd 22a8 24be
bc4b 2e3d dce1 703e 00dd 9dbd f703 57bf
8921 8abe 05b6 853e 36ce 8abe 52b9 333d
9a44 a33e 7f38 063e fab7 a03e 6c31 363e
27b0 463e 6f7b 10bf eda2 5b3f d8c6 98be
ff9e 5e3b 6796 9ebf ba88 fe3e d497 5b3d
5363 c4be 4be3 f5be eba3 0c3c 9e43 f4bc
25c2 253e d503 7b3d 89f8 e13e f08b 10be
155f bd3d b4a4 363e 3e3f a93d 6a76 90be
4093 433f 2e77 bd3e 529f f8bd 6ad9 ae3d
4832 9abd 5993 e0bd 1e62 afbe 02c6 8ebf
3eae 3e3e a1fd 8fbf 5475 5b3e e031 d7bd
26fd c6bc 8893 183d acbf 8bbe 55e3 a7bd
92e9 d1be 77de 553c b585 8b3d 829f cfbe
099f 923e ed72 b03e 47a5 d3bd eb8e b93d
e26c 773e c3ea 7b3f fce7 24bf 9c21 6e3e
c39a 4b3f 7bdb 593e b49e a93d 5951 04be
1c4a f0be 85ae dcbe d08e 223e 6a6d d6bd
d83e 3e3e 8d63 b6be 38ce bdbe 73c4 a5bd
4997 d63d b793 913b 4ec5 b6bd a9bc 5f3a
96d4 babd a214 083f 75ff 8a3e c6d1 4abd
d5c2 65bd 8456 3fbe cfd8 06be aa78 103e
07d0 dc3e 1795 8fbe eb8f b53d 4642 13bf
68e3 2b3d 325b f43c 0ebf b93f 8a33 ad3e
77e3 f2be d797 0e3f b41a 95be 9a1c ab3e
4c35 3a3e 3331 483e c7cf 753e da44 b93e
5165 f63e 2377 b4bd a6c9 bfbe 93b7 8abf
e65b c73e 96d8 d8bf 4635 1c3e bea7 01bf
e819 ed3e 769a c8be a01a cfbe fb69 8f3e
4c9f ab3e 8bbb 423f 9224 1cbd 377b 8fbc
34d7 c2be db62 493e e1da c7bc 24a9 00bf
d301 483f 1182 543e 2542 a23d 8d84 393f
2f6d 82bd 2d22 53be ef82 0cbe 1de0 e2bd
4cb9 71be 8410 68be 5037 3ebe bb1a 323e
e12e 493e 0bc0 b13d 6f25 c33d 7473 e5be
f7f1 d43d e5ea 163e b29d b5be 0357 a23e
45dc 6f3e 8d16 443d 1bbe b5be 6e10 cfbe
fa57 1ebe 7dc9 c53d fc2d c13d f9bc 41be
f15c 0abe e02e c1be 1364 9dbc ba48 09be
07db f5bd 31d9 8abe ce36 c3bd 2d67 fe3d
ec29 f0be f6cc 4ebe 57e6 e53b 4aba b2be
c37c 823d 7b1d 1d3f 47eb b0be 6b62 9d3d
05e2 153d 55bf 793e 2abd babe 8f6a 3c3f
26fb da3d b556 f9be c1f1 ab3d 8142 d63d
ef02 8f3d d43d 413e b483 cc3e 72f2 d2be
f588 a53f a317 18be 4741 fdbe ae47 723e
2e3f a83a 38da a2bd 9c53 08bf e2a9 113e
3d5d 9ebe bb9e c83e 209d 93bd 0ac2 d1be
5e3e 673e 236f b73d d09d 5fbb 9ba3 4fbe
cb57 24bf d220 843e 9864 d13d c94f 3dbc
9cfc 4abd 8745 c93e ee88 21be 4190 ae3e
fd7d 11bd 0abe cbbe 499b dc3d 52fb 40bf
b0fc bcbc 57d5 95bd 1850 85bd 6882 4abe
3322 8cbe 75b6 053e 2275 4dbe 984b bc3e
56fd a5bd e1f1 a5be bdb3 123e 9f6b b13c
7923 b8be 2be0 6d3d 6300 5abe e7ca 833e
4b2b 8dbe 4c2d 95bd a8a9 94bd 96ec 3abe
7ce3 9fbe dafc 7bbd 89be 693e e43a 90be
9693 58bd a7c2 bb3d d16e 1b3f 8ff6 4b3f
b224 eb3d 3992 033c afa8 1ebe ec57 dabe
54f4 0e3e 64ba 95be 2a5b d9bd e406 a93d
3dcf 9fbe 83ed 69bc ccb7 4dbe a907 35bb
c751 02be 064c 4d3d 7b9b b13d 9a72 8fbe
2f51 d03d 2549 b2be 900f cb3d 3f22 acbe
b9ce 043f 5e46 413e c955 2dbf 70a7 0cbf
4ad8 86be c7ce 84bf e438 c7bc 10a1 5dbe
be6b 243d 1450 50be 2c90 9ebe 5299 88be
3739 d43e 8d70 8ebb d061 90be 8e3e 513f
230f 673c aedf 263e 690a 36bd eec7 64be
60a9 b3bd 1e98 983d 2c90 73be 6d3d 7e3f
485a e3bb e96f 19bf b9f4 193e 9d9b 543d
bead 963c 70b9 413e 7324 c43e faf0 04be
5474 853f 75c6 14be aab1 edbe 67de 4dbe
4ca2 cb3e c6db 09be 10e8 a73c bf4f 013e
39e2 683d d1fc a5be 4db7 803d 9b89 89be
4f65 46bd ef35 843b fc27 9f3e 367d 323d
55fe 03bf 168f d73e 279d d6bf 0160 cabe
2d15 9ebe 06ed 2b3d 360b 9abd 341f 793d
1948 273e 9796 9a3e 60d9 14bd 7f4f ff3e
f49e 453e f596 873d b785 62bd 919f f7bd
0ae3 f4be 6a9b 2d3e ecbc 0abe 4499 123e
989e 6dbe 2620 a13d 2221 2cbe 24b4 073e
80ab 94be 9848 f1bc 56c0 833e 57b9 56be
5f6b 9a3e 4b78 593e 7a7d 4bbe 7630 8d3d
23f3 c2be d6b5 6ebe 2291 7c3c 7fa6 7f3e
98b7 783d cf76 85be c299 5cbf 5994 0c3d
a1be 14bd 5bad 6ebe 3a54 2cbe bdd3 8ebe
9902 e73d b12c 7abd 5e5a 07be afdc 3fbe
d8c2 cebe 8625 8d3d c8c2 dcbe 46bf afbc
2d96 c4bd 4eda 953e 2446 993e f1e1 113e
5e64 ba3f e052 ddbd 2af0 c5be afbd 5ebd
1a23 523e dc77 033c 5728 89bc 598e 1c3f
f450 bcbe 6fd9 573e 3f62 093c fb6e 373e
627a 6a3e d5d0 0b3e 5780 3abe 8eff 94be
caa0 e4bd 1a32 12be 69a0 c8be 5931 17bf
df28 04be f9c0 06bd 0786 3bbe 73ba 8ebe
adcd cc3e 5273 6a3e f223 7bbe b51d 933f
00e9 1ebe 4b11 ccbe 96ac 6d3d 1256 793e
f592 333e 2779 a2bb cd91 643e b62f b6be
9efe a93e ddbd b1bc 9a06 4b3e a2b4 97be
cdf6 663d 10d5 403e bc10 9fbe 23e1 08be
a966 26bd d77b 65bf fd9c 953d 7c0e 56be
5703 44be 1c02 40be bb80 8cbe d84d e0bd
05b0 533f e753 7bbe a1ce a63e e271 103f
16ef 893a 04ba 8a3e c000 ee3e edbc e53c
1eda 98be 1dd8 82be 4135 653e 0c6c 573e
875a abbe 355b 16bc 8c55 b33d 57d8 8bbe
6787 183e 7f9d 443e a44f f8be 3bb6 61bd
c88c e63d 2aa9 f6be 5ba6 453d e9b0 173f
5a24 d4be b8f7 493b c7fd cb3d ada0 04be
f87c ddbe 42c9 02bd d84b 403e 855b 133e
f894 13be 10ee 3f3e eb2b 253d ac9c 83be
4295 f3be ebcd 233e 5b67 76be 6d72 3dbe
5d61 723e 2123 1d3f cb75 9ebe 5272 013e
3e87 25be 8a0d 813e 0e37 15be e402 59be
e68c cd3e a05c c73d 542b c53d c9e2 783c
d60a 13be ce27 1ebe 7484 0dbf 15d5 103e
b75d 58be 86ed 943e 2930 55bd 7949 4f3e
263d 81bd 354d 5c3e 3c0e 7d3e 966c 9c3c
4327 49be 3b28 2dbe 6160 3f3c a03f 20bf
c54c bbbe d6ec a43e 81f6 613e c8b8 fe3e
6fda cc3e f5c7 453c 647e b13c d8db 0a3d
aba3 40be 3451 98be ef55 d8bd c160 753e
f6d5 a7be c601 56ba d66d ae3d b61f a93e
d2d3 c53e 253e 6c3d 6d96 ef3b 9877 dbbe
c124 593e 5dcb a23e 2f7e 0abe 2839 77be
2904 c3be 2def 673e 5121 67be 9f1f b33d
d297 d3be 5fa7 8fbe c61a 9bbe 42fc df3d
ec13 663e fcc7 91be cf24 843d 1b2c cdbd
cbd2 9ebd 5917 c8be 5798 fdbd d01b 7bbe
34bc ed3e fba9 893e ab16 6d3f 6237 2ebd
970e f5bd 26f0 ca3d f301 003f 8578 6c3e
73f4 543e b9a6 14be eb39 9f3e fec3 df3d
71c8 6abe 144b 5ebd 7524 da3e 11b5 eebe
520e 0a3e 272f d83d 1429 8f3e 403a a2be
4810 f43d 7c0c c8bd 91d2 213e ea53 abbe
2687 e33c 91ad 213d 1180 c0be 168b 3c3e
d0c4 113e e323 e33f ac41 c63c bb26 32be
c152 823e b024 b53d 3ec3 8e3e c06b 0abf
c8e5 4c3d 350a a1be e1ee 0b3f 35f4 92be
44c5 be3d a533 1f3e f02f a83f f2b3 7a3d
00f7 ddbd 3997 e4be 91cc d13e 994e f9bd
5f98 153d 486f 92bd b838 acbd 7532 7bbb
4f67 823e e60d e23e 40f5 24bf 53f2 a2bc
8ad8 8b3e d253 d6be 01d4 8fbe 46f7 be3d
61a2 193d 04e3 4a3d 6582 85bd 90b1 fabd
ad0a a63e b6d5 20bf 3fa0 323e 36e4 edbd
844c fdbd 1308 37be fd01 85bd f9ab 353d
d277 e1bd b96b 2f3e 7454 2fbf 1cb0 dcbd
d90e b3bd 75ba 07be b93f f0bd 1070 cebd
92ce 2e3d 0050 30be 634b b2be 1d54 f43d
8f3c ed3e da3f 623e 7192 be3e 3498 d83c
10ad 3b3d f13d a3bc 00ce 7f3e a590 bdbe
e204 f4bd 99f3 43be ffe9 0dbe b4d8 04bd
8501 ba3c 9e1c edbd 03cb 583c da3f 42be
9352 e73d 5bfb 7e3d ab2f 853e 75a4 b43d
f899 313e ac1c ebbe 4eef b53d 1f47 c0bd
25ab e1be 5a98 7537 0f06 59bd bb37 283e
b4bc 51be 2ff1 3abe de4f 9bbe 7bfc 3e3c
3aaa b43e 8c25 6ebe 864e 43be 32b7 d0be
e3e3 663e e9f0 40bc 6b5f 47bd 6c45 16bd
d80d 00be 84c4 66bd 9ce5 4ebc 669d 433d
6915 65be fdd9 97be f436 043e a868 123e
ef57 d3be 2bbc 26bc 5c18 8c3e 7e6f bebe
5bf2 35bd 37b1 5a3e 23e7 c5be 8153 703c
1517 843e a082 cdbd bd02 9d3d 2b06 603e
0b68 ddbe 843b 823e e6a6 d33d 43ba 63be
89f6 b8bc ed91 bf3c e9b0 afbe 6ce8 503e
067f 4abe 6a8e b2be 0342 303e 627d 1f3e
c08d 26be bfd6 ed3d 2e7b d13e 467a 9cbe
e7c6 0a3e 5878 c2bc 00b2 b1be 31be cc3e
139e b8be 6d86 dfbd 475e a4bd f106 b6be
058a c5be b425 293e ca95 013e 5141 d2bc
2e56 d0be 5298 67be c614 a83e ff29 cf3d
d36d d83e f932 28be 5917 203b 6e52 a2be
f8ab cabe c863 00be be4b 603e 789d eabd
2b56 64bd bcb4 dcbd 2d2c 05be 03e6 b9bd
9c07 823e 7bb6 bebe f013 95be 81eb fc3d
a1db 4abe 544b a0be 7d56 0e3d 6a09 aebd
aba9 8cbe a3f1 0bbe c484 b4be 7ce9 923e
ddda 85bd 7ee6 0a3e 657c 973e a76b 843d
fd5e 36bd 27b3 653e 7da8 e13e 465f 26be
300f 3f3e 46cc 8bbd 70a4 cc3d dfec 2abe
2972 acbe 916e 9abe 8e2a 3ebe 58b5 6fbe
e20c 2d3e 3721 debd 13b6 c3be b1e0 debd
f83e 43bf 4ca5 c0be 4a05 503e 463a ae3e
8b41 d63e cad8 99be 6a44 83bd 0df9 a63d
cd87 583e 13ae 62be 4c9f 433d 6fb5 62bd
f072 483d 0eab 51be 996b 56be bc9f ba3e
0cce 1d3e 8c1d 86be 5495 b5bd b4e9 aabe
52e0 a1be eeb7 303e 6912 593d 50ce 743e
b5d0 83bd 5e98 2f3e 22ad 033e 874c d23d
8180 703e f7cb 31be ec04 65bd dc2d fabe
9ed3 943d 81c2 7a3e 05e5 e6bd d35b 743e
9c9a e43d 7e69 29bf fcd3 623d 2d6e 293d
b184 d33c 98ab 8b3e 5b49 893d 1ee4 943e
4d6f 5e3d c202 97bd 0c28 fe3b f47b aebe
e2e1 ce3e 236b b53e 2f99 813d 0b4f 46be
f7df c6bd ac9b 593e d948 27be 7833 103e
1bf5 8ebe 2cfe 533e 6968 a23e b757 7ebd
c6a1 4cbf 92f8 fbbe 39a4 15bf 3ed8 173e
b5d8 95be bd7a 3f3f 5450 22be a917 5bbf
4857 9cbe c320 dcbd 5b14 913e 1c35 243d
861d 6e3e 8543 d13c f4c2 81be 7e90 1a3e
2d5b b03e a620 11be b6ea be3e 5ffd 493e
d05a d33b fb76 753e bf0f 96be e1a2 92be
c716 d43d 5a99 3e3e a5a9 95be 71ae 1a3e
159a 2cbf 0921 2bbe 66d5 23bd 8031 78be
b149 64bd a344 4bbe 9803 a33d a4b4 223e
77c4 4abe e5ed 8f3e b601 e03e b669 383d
fe3b ae3e 6b37 a6be 02ba cb3e af96 90be
b84b 073f 04be dbbe f017 d93d 4b3f b13f
4407 cb3c 97e9 983e 3562 6ebd dc3f 963e
8e89 a6bc a778 833e 0620 c6be bd1a aa3e
97a6 9cbe 5b1f 6e3e 5f64 593e 74ba 833f
04e6 02be b4aa 1a3e e13b 4e3f 2c29 b23d
f89d dabe 7cd6 de3e b81b 28be b40f aa3e
f7c2 a03e 3c63 2cbe 7f0d a43e 035b 40be
be82 853e a3d7 cf3d 36d8 bebe ac2d 863e
2e38 043f a33c cabe f62f eb3d 8467 8dbd
7ad5 9fbe 37c6 c23e 9669 433e bad0 99b9
462e 9b3d 74ff 5cbe 6cfd adbe e869 013e
d0c1 ae3e 7ca2 ecbf f88d 023f 37f3 a9bf
d033 873c c646 03be 0d02 0bbd 482f 083e
5b07 babe f370 593d 8099 b6be e0dc 63bc
dc41 703e 37f7 6cbd 0a3d 613e f7b3 82be
4494 223d d9f2 b53d 78a6 923d 64cd 293f
16e7 9bbe 2cf4 3bbe 7211 2e3f e241 863b
d0c0 d83e 4179 49be 3676 213e e01b aabc
938e b63e 118b 9e3e bfe4 c63c 9c74 2f3f
f605 293c 2a0d 32bd 2858 00bf be46 2d3d
21ca 8f3e b66e 5e3e 01f6 443e 9e69 98be
c8cc ab3e 87c6 bebd 8164 c63d 7eb5 6a3f
947f 0ebe bfa6 c3be cabb b3bd 62b5 12be
60cc e33e 6929 dfbd 3e29 9ebd b09d f63e
e0c9 0bbe fa5d 143f 0477 0f3e c5f7 0abe
8bf5 353e 9437 c83e c492 25bf a328 453e
ae57 90bc 3938 353e 8093 70bd 027b 553d
781c 0f3f eb4b 6e3e 996b b13d d6ed 5c3f
3e94 e93c 8a54 873e 979d bebe eeb3 0ebe
7a44 1cbe e447 9b3e 488c a43e 0a17 4dbe
8569 653f 56dc 0dbd 9cd9 843e 5b7e 5ebe
e5b1 16bd 15df 54bc fd6b b33f 32c7 83bd
5a77 4bbe a4a3 c63e c67e 673e b532 3f3e
f559 873e d1f5 0bbf 8a34 85be c1fe a63e
c581 ce3d c403 863e 1821 083f 4fbb be3d
bd82 dbbc b889 f53e 3212 d03e 84fa 31bd
2fe4 5abd 05f3 1cbe e3ce 043f 73af dc3d
0fbe e03d d47d e03b 9492 e2bc 6ce6 b7be
bd2e 8cbe 5973 c1be 63b9 02bc 420f 983e
04be 15be 7fd1 283e d08b c53e fdc1 f6bd
3d66 803d 671f 283e e6d1 44be f086 533e
1527 e8bd 21f8 c83d 6451 12be 4e86 d8bd
610d 03be 7287 083d cc60 a83e 3d1f cdbe
3b48 903e 87b6 9f3e 2411 3b3e 8237 1c3e
4182 16bf df4b 7cbd 9023 083e 2016 a03e
9a41 acbe 9c43 843d 4d74 88bf 1539 213d
302e c03c 75e5 a1bd a2ba efbd e5a1 a5be
21c6 993e faca c13e 670e 8cbd 2f16 90be
6716 f13d 6d96 8ebd 0d01 2b3e d0f9 dc3e
fad3 75bd aee9 bf39 deb4 0f3e fc03 873d
e401 2abe 82db 04bc 58e9 573d a21d cc3d
087b f23e 3e23 dfbe f986 913d 7d1a 83bf
4ea8 f2bd 2438 193e 7eba 8e3d e706 81be
6a57 68be eec0 1d3e 72d1 8dbe 51b9 8b3d
09c3 8b3e 313e c53c 29a0 80bd fc67 19be
d115 7fbe f65c 6abe 5d20 2ebe 8fee 24bd
24b3 873e 178e d5bf 829b a73e 5936 68bf
d97f 1bbe 2a93 95be 4aa2 bb3e aa0b 2dbe
f416 56be c5fe 9e3c aac4 ab3e c406 30bd
0f9b d93f d375 713e b383 59be c6ae 5dbe
0303 903e 7dc8 78bd 10ef 71bc 9cb2 c0bf
1ac8 fa3e 8874 dbbf 3113 2d3d 7a3d 98be
7411 633d 585d 3e3e 27f8 bcbc 94b6 393e
9dcd 863d 121c ab3e f630 fa3d fd17 d63c
9ca0 d13c 10a9 dabe c91d bdbe 7067 d13c
5432 40be e529 953e 3fe4 8bbe ab67 893e
8132 8b3e e782 b0be c542 943e db67 7cbe
f4f5 73bd 9809 193e 2ab5 88bf 8e1a 693e
e842 c1be ce48 343e ab97 89bd 2594 883d
78d7 83be 7fa0 f9be 9acc 42be 7816 95be
f128 973e 27f1 833e 0515 febd 5688 273d
69e5 0cbd 9365 93be a912 1b3e 967a 01be
710d aa3e 7a29 333d ce80 373e aca1 183e
279f 43be 1e10 b03d 1e70 79be 1935 e3bd
10db dbbd 2367 b1be af9b 5ebe c139 753e
461e c0bc 6dc3 213e 5204 db3e 4a24 0e3e
64c0 1cbd e7e0 2e3e 5d0b d53e 04d7 babe
c687 fe3e 44aa d93e 84c6 133d 6d7e e23d
4efd 8ebd 777c 04bd 71ff 08bf d8ed 37be
140f cc3e 19fe b9bd 4e5a 983c f7f5 4b3e
024e a1be a2d1 18bd 478c 95bd e28a 85bd
86de 63bf 2615 373e ea55 cdbd 8028 0f3f
99b6 77bd b79c cb3e e306 38be 9043 9d3e
151a 0a3d 302b 82be ac52 483e 2f4a 733e
9d67 bcbe afa2 463e e4e4 883d 10fb 75be
e366 b63d 1b2f f93d d528 3b3e b36d 89be
5d33 423f 2c29 65be 35b3 6abe 033b 6a3e
a2c8 d3bd cc23 0fbe 06da 813e cdd9 8f3e
2aae 34be a99d 1d3c 7e4b a3be 10fc eebe
1788 2f3e 45b2 103e 3a3f 8e3e 2546 6d3e
9bb6 6cbe cb87 733d c706 24bd 6687 4abe
1930 c33b 04cc 7d3d 9ed8 b0be ccd3 d53d
10ab 24be d34d d5be f89d 653e c039 aa3e
bd1b 94be d9d5 a43d 74a2 21bd ba10 58bd
5f97 103e 363c 833e b480 1bbe 3dc7 583e
c4dc 86be 0e81 82be 51ec 183e 8008 873c
57ce 98be 40d4 7a3d ff6d 47bd 20f1 153f
b38f 313d 6150 cbb9 ece5 303e 0262 27ba
8dbb 8e3e e358 c73e a9ed 1a3f c9f2 633e
738c 6e3f 0ec3 e4bd 56a5 44bd c370 603f
512b 193e 7844 603e 0192 5ebe 279b b2be
45e4 8fbe 2d26 5a3f 6ef2 d2be fce8 843e
21a4 513a ad73 d23d a3ff 03be de72 8ebd
e719 eebe 0ff7 a9be 738c 84be 7c2e 703d
8cac 1cbe c67b 0fbd aa5f 06be 9853 fabd
38bb 46be cb75 1a3c efa1 b83e 2caf a7be
0370 a13e ac12 d2be 1e11 19be 830d 27be
cdbe a2be 2171 3bbe 7ab4 9ebd 9374 d3bd
6c51 513f e3c2 a4be 6371 3b3e f213 793f
4ae6 f9bd 3804 51be d080 a53d b2af 04bd
d45c 9a3c b19a bebe 7fc1 b33e 630f 953e
a255 10bd b837 8d3e aac8 05be e5ba 4cbe
ff6c 213e 1037 10be ed79 ae3e 4e21 dd3d
fc5a 96bd c4d5 cb3d 6add 6cbd ec8b 72be
aa4a 82be 02a3 ad3e c34f b13e f877 0ebf
4d7e cbbd a614 94be 11d7 16bf 13e2 86bd
9401 083f 6b03 6ebe 5c70 a43e a43f 3bbe
504b 0708 8a25 3627 0048 0000 0048 0000
504b 0304 0000 0808 0000 0000 0000 0000
0000 0000 0000 0000 0000 0e00 0400 6172
6368 6976 652f 6461 7461 2f31 4642 0000
8c1c 463e 2356 0fbe 0b0b 6f3e 3056 bd3e
177d 243e 13fc 353c 87f8 163e f6da 93bd
ad5c 333d ee7d 9cbe f688 2abd d0ea 60bd
55bb e43d e516 d53e 3e28 fcbd a402 c43d
355d ccbe 19aa 963c c8df 19be c351 d9be
e5fa 223e fea9 85be 0a75 dc3e 908e a53e
e752 a93e bdb5 11be 9ae5 a7bc 39e1 2cbe
882f 77bd f548 c7bd a351 613e 7767 17bf
f61d 93bd e494 283e 1832 c63d e4ec 493d
f133 6a3e 032c bc3c d4b2 1b3e 6133 d5bd
07b3 cd3e c918 623d 75b4 c1bd c8b3 c5bd
8fcd 713e f40c bd3e 2a31 24be b361 b23e
9cd1 1d3e 6085 80be 1b50 35bd 5ff4 2a3d
4093 91be 4deb 903e 6ba5 e13d 08df f8bd
8a0b c7be b865 1dbf 5f05 c93e c1ae 713e
e445 9f3e 0463 0e3c 647e d13d 5b87 9bbe
7b28 183f 31f6 533e a8d6 c93d dff0 3bbe
327a 963e 1479 2b3e 3e0d 6b3d e255 653e
a2ba 8abe 0137 4ebe fef4 ca3d ebd6 9f3d
6f6d 723e 6c8c 9cbe a2a8 34be eb7b 9ebd
263d 3c3e 0330 7cbe 5f6e 1cbe e02d 62be
3d79 943e 609e 6cbe be15 94bd 3b73 77be
6f7d 703e 6772 103e f214 c43d a756 04bf
ee3c 0ebd 78e5 b5be cae6 92bd 22ce 1d3e
9c6b 973e 67ec 3abe 7a8c ac3e e1e8 1bbd
094b c7bd 0b06 883e 2218 a0be e0db 323f
aaf7 853a bea3 45be 40a5 993d bb7a 98be
0076 89bd 38a8 9c3e b008 cdbc ab80 9ebc
0a2e 81bc d28f 503e 0e11 343e e87b 43bd
7263 863e d4ac 81bd c84b 893d 89ea 6abd
9eeb 9dbe 8080 05bd 361a b5be ae97 8bbd
dd0e d0bd 089c 563c 1141 e9bd fb1c 033e
28a5 fa3d e994 7d3e 849f 5e3e 6d8f 243e
1868 81be 002a 94be a628 0dbe 4a13 8fbe
8c54 77be b5dc 973d 668a 923c 4154 b43d
b328 4bbe a5c9 9d3e 8701 373d c75f 86bd
6f14 8dbe fcd5 fe3d f6e5 1a3e 13a2 4cbe
a289 3b3e 5d64 a33d 2cf7 bb3e 6b84 1dbe
177e 9fbe a8f8 213e 91b5 1e3e d9a0 9dbe
6e4c 05bd e34f 01bc 36a2 8bbe 9cc3 25be
d995 6e3e ecdd b83d eb47 9ebd 68b2 88bc
2056 a33e b30b e93e 136e 6ebd 5fd5 403e
7b65 37be 10e3 03be 2af4 b0be 9720 883e
d2a1 163e f4fb cdbe b6ca 013d 8db3 333d
fe22 473e b914 02bf e7fc 90be 6285 c7be
fbe6 cfbe 446a 493e 46fe 833e 655d bc3e
bb3a 1d3e 8e57 1ebe 7d1a e03d c545 f03e
2aad cdbd 8e40 a7be 02cf 47be b926 98be
fb3f 82be 5232 6a3e cba6 b23e ab9c 8ebe
bcb6 07bc 620a 26be 9ac5 363d ba2b 6b3e
fe38 cfbe c29f 183e 4e89 443e d389 c6bd
7445 953e f46b 0bbd fe7c 50be 7b75 7dbe
7354 2dbd 853d 6cbe 930b bc3d b574 aabd
2bd7 153e e10b e1be d725 0cbe 56df 9cbd
fa95 73be 02a0 383e ce08 78bd 5648 24be
0cdc a1be 1263 eebb 56e1 b8bd 36fa 8b3d
82b3 1c3e 5e49 8c3d 0828 913e d410 e039
b49c 373d cd9c 04bd 2a17 03be d9cf 9b3d
523c 41be 303d 9b3e 3eec 58be 9c72 fa3e
2354 553d 635e 433d 3102 6dbe 4b19 5bbe
f743 d9be 5d76 7abe 9af4 283d 32f6 13bd
8ff1 45be 6afd 2ebe e74e 273e 0e39 a8be
2cde 423e aec1 76be 33bd 76be a6a3 b0be
1941 293e dc68 e2bc 92d1 ebbd afed 19be
85a9 f0bd e3b0 5abb 0cd1 983e f678 303d
8546 98be 462a 913e 7cd3 51bd 5a28 c43d
6ef1 69be 06a2 513d 7b0f b6be 6888 813e
4e79 853e 048b 8b3e a46f 523c 28c8 3bbe
8011 67be 32fe 6c3e 497c ad3d 2767 8bbe
5e6d b03d e497 31be e14d a5bc 858c 7a3e
310b 993b 617a b63c e44c e73d 3cb6 94be
14df 6b3c 4bf7 4cbe 4bbf 4fbe e817 183e
b6af a93e 75a4 803c 14e5 663e e3af 95bd
a819 353e d863 17be 7ccf 1ebe e1a1 d2bd
f67f 36be 02e4 93be fcd1 81bd b546 5abe
3458 ebbd 4a96 083e 365b 1cbe 9612 833e
664c 18be 46a5 ab3e e897 ce3e 291f 333e
0d13 5bbe 8b02 bc3e 9332 e43d 8d10 b23e
1ed7 aa3e 827a 8bbd f061 14be edf3 a83e
80e2 133b f434 adbd 117a a6be 89b0 17bd
1933 55be d414 1b3f 906a ca3e 1742 4e3e
3aa9 bcbe 2ae4 87be 7f45 493e 8b29 c83d
6e21 433e 3404 cb3e b55e 993d c028 703e
cada e1bd 2bde 1bbe 3e21 273e 0764 77be
42ee 1abe 78b0 563d b17c 3c3e 16c6 b93e
9c57 0cbd fcfa 9dbe 8117 323e 904d 4fbd
0913 b7bd 5a8c c8bc da1d 6d3d 0594 a33e
067a 43bd a548 fc3d 6bf8 2dbe 8a63 26be
2b91 663e 8bbe 043e 7848 21be 9a7c 51ba
06f5 d43d 688b cdbc 51e3 c0bd d37d 7fbe
1a7c 563d 14c4 8a3c 0bfc 58be 62e6 cb3d
40e1 b23e f140 9dbc de6a 6e3e 2e99 8dbe
e1ef df3c a115 40bd 8c79 02be 7de0 963d
cc71 e23d 09d6 b23d 71be a8bd af6e 7dbe
1f59 f5bd 939d 49bc a6db acbe e1ba 663d
fee2 a7bd 6969 b43e fd0a 74bb 7199 f33d
7779 30be e557 00be d278 a83c 8034 c1be
1c5e f1bd 90cc e6bd de5e 8fbe 5c59 50be
86b5 8d3d b64c 103e 34c3 ab3d 2d38 9a3e
dbed 8cbe 7550 aa3d 707b 73be 5b90 8bbe
7d1e c73e 40ce e43d 056e a1bc d7e4 a3bd
b0ca 503e 4074 9ebd d2e9 21be d2bd b6bd
bcbf 6dbd fd27 94bd 20f7 5c3e 1879 053e
d9b0 cf3b d99b 36be 15d0 b13e 8b9f c5be
6b6f 10be b50e c3be f50f 3d3e 4ca8 88be
7748 cabd f73f 54be b8ca b13e 5c5b 7f3e
4d5f 6d3e dc78 a93e b628 48be 151a 21be
75b1 333e 8b6a 5ebb 631b eb3e cf0f 453e
25d7 b33e 68a5 c1bb 0ba4 2cbe 447c 64bd
0579 ad3e 309e 883e 2fd5 1bbe 7358 c03e
69bc 903e 71a4 aabd b365 183e 18c7 f5be
1b70 51be 258d 54bd 1ad4 08be 7561 a4bd
5cf0 903c f486 0dbd 5e72 a03e 60ee f9be
ff14 753e 1802 9abe 9e95 793c 61b1 52bf
72a9 6c3e f3db 8d3d fe51 883c 59f4 653e
bf4f b7be e265 bf3c 7201 a73d dbfe 163e
c207 b3ba 0159 843d 42bc 47bd 6065 5dbd
1736 90be 5b08 eb3d ba1c c5bd 201e dd3d
f125 99be b25c 8e3e 6550 99be 35e4 91be
928c 8dbe 8c80 f6bd 2228 a23e 1143 8d3e
36c3 bebd 0b15 26be 4416 a1be 366e dfbd
4bb2 413e 27fb af3e b3e8 dd3d 3269 413e
10a5 a6be d084 853e f237 af3e 0a32 923e
6b7d 84be 41ba c5bd 5120 86be 5335 b93e
bd39 043e 48a7 5fbe 4f3f 23be 9783 e4bd
bc11 66bd 92b7 533e cb8a 293d 118b 633e
eb4b a7bd 2b59 82be 109b 373d ec4d 793e
e5c2 1bbe 931f 563c 7b92 82be d644 8e3e
504b 0708 a900 3c53 0008 0000 0008 0000
504b 0304 0000 0808 0000 0000 0000 0000
0000 0000 0000 0000 0000 0e00 0400 6172
6368 6976 652f 6461 7461 2f32 4642 0000
e3f5 a43c 6c11 643e 82e5 1e3d 7e2c 513d
10a3 2c3d 51a1 683e 7e2b 0e3d 4acc 97bb
27ac 983c 861a 3c3d 25f6 cf3c baec f6bb
bd5b f6ba ed41 103d 3cde 273d 1c26 083f
2a2a 093e 669d 133c 4125 a73d d46e f3bc
c79d f1bc e87e 033e 9b00 e03e 59e5 073e
0af5 5f3d 1d31 e2bc b7d7 d03a 2440 a83d
c0ad a7bd 5002 993d c284 d73d 0e1a 623d
c959 22bd 4034 0f3e 3d6f 623e f4fc 643d
8b00 ae3c 6b9a 703d c749 513d ff99 e13c
7483 f63c 6086 a0bb 3d5a 913d a5d1 003d
b98f a73d b8c0 b5bc 17c6 6f3c 06ce 7d3c
327d 533e a5d7 903d 9a11 843d e87d 373c
8836 01bc 592d 1c3d be94 47bc ea74 bfbc
561a 0dbd 636e 36bd e8a0 c43d f74d 813d
85c7 f83d a8a0 2a3d 00ae e13c 68bb 393d
1ba1 893e 5a88 6f3c 8c6e d63d 5344 fcbc
eb46 7f3d 4ded 853d 23cf e23c 4276 0ebd
b56b 903b cbe1 debd e432 2d3e a7cd 1e3d
e690 083c decd 783d 0d6b b73d 8551 833d
6315 bdbc 09f2 c73c 9684 8dbd 692d 37bd
910d a23d 4b21 133d f98f bc3d 1061 0abd
a08e 5abc 2b5a 983d 6f87 97ba cd82 adbb
3823 093d a338 c63d 54a2 f83d 6259 65bb
4fe8 0dbc 7db0 083e 6ae0 563e f570 e33c
b68a 303c 1e65 c23d a479 dd3a 9d2d df3c
2f37 3c3d c092 593d 9cbd c83d 8042 033d
4404 9b3c d0b2 7c3c 6740 6abd a001 e13d
a26d 2d3b cb20 c53d 0202 963d a201 043d
2f89 2c3d 1f9b bfbc 52e9 b23c d689 7e3c
da18 18be 4bc7 90bc 4f1c 5bbc fdf5 4d3b
c7f2 8c3d c370 7e3d 701a 813d 848e 533d
f598 edbb ecc8 01bb 092e 433a 0d85 41bc
1199 943c 99d1 1b3d 1d59 173d 47b3 dd3c
91a1 8d3d d69d d03e 89dc 443d 006f a53e
9572 96bc 7672 f23c eeb0 c63d 4fa5 63bd
20e2 9a3c 1e64 2a3d 0114 b53d b2ce 0f3d
c674 f9bc 447d 6d3e 5f4a b63d c4c3 08bc
d094 15bd ad93 993c 585e fc3c a733 ce3c
5a91 d93b b09c e43d f475 5a3c 9761 323e
19dd bb3c b73e 833d 40e9 a1bd 93e0 543d
4702 1a3e a1c5 f939 a300 a53d 6a43 9f3d
cf55 1ebc 04a4 903d 15f3 fb3c 1036 0bbc
4f45 3cbb 3bc8 8d3d d8ed 84bc 10bc 9abc
a841 203d b80c 1cbc 9f48 6a3d 36b2 26bd
832f 033c 40e2 353d 4f69 0c3e 82f0 883e
3dad 2e3d b33f d83d c5ef 733c ff4c 3c3d
3c1b 0c3c 641c 923d 13bd 023d b11c bf3c
226d 7d3b af2f dd3c 3510 383d 4ffb 47bc
4ba8 6a3d 1de2 9b3c 942a 033c c0f9 803d
49d5 be3c e23b 953c ac54 453d 17f6 12bc
4457 b53d 672f 913e ce6f f8bb e9df 133d
f027 4dbd 862c a23d 66da e33c fd1c 913d
44df 06bd 4b1a 15bd 1024 d83d c7b2 da3d
46db 72bd df96 2f3e 7336 173d afd4 2cbc
0d20 4e3b fb07 3e3b 74c3 e03d 0174 663c
2b81 853d ee2d fcbc 20ad c9bc 4e57 bc3d
2ca4 0e3e 9288 3a3d 604c 543d 024d 5e3f
2b0a a03d e9d7 be3d 8661 123d 3c57 ae3c
6e9b 513d 76c9 fb3d 88ee 92bc b4ff e03d
1a98 39bd e295 8c3d ec0e 3c3c a8f2 72bd
6965 a73d 6c10 523d a556 f73d 5929 1ebb
b3b2 353d 999d 113d acc0 993d 5bd3 a9bd
b0c7 813c 1d94 243d 7c05 b83b 020b 4d3d
95a2 653b c774 8abb c545 a73c 1a76 173d
87c6 403c 3378 763c 78bd d13c a167 d83c
6d8c 1a3d c397 223d 7dd8 a23c e0f3 f2ba
4e17 1b3e 4848 803d 0d3a 033d 8eb1 8b3d
62fb 50bc b23d 4f3d 68de ddbc 505a b43d
a0c5 683b 918a 0b3d 2010 c93c cca0 893d
971f 743d de48 37bd c872 2e3d cde2 11bd
5724 f53c d4b4 713c 9376 233d 135b 8abc
a9c1 68bb c40f 3f3c 3f7f 0a3c dd99 993c
ff5c 063d 87b0 8fbc 8f4f 54bb e0d6 873d
7432 253c 4107 2a3d efd2 b6bc b623 bb3d
d9dd 163d 2777 8f3d 2a7b 0fbd fe45 323c
0960 093d a85c 93bb a101 f23d 375e a03d
8fba f2bc ad9f c63c c014 0dbc 072e a93c
f5f4 d43d 7a9b b03b 36d6 8b3d 5203 143d
17a6 493d 412e 43bd 8b8d d03c ea6e 02bd
533c f83c 04eb 4b3f baeb 6f3d 443c 323d
aa4f fcbc a65f b13c cf65 343c a898 113d
4ca5 cf3d 824c 6b3e 576d 133d 00c9 783d
fab7 68bc b9da ef3c 461a 373d 9919 0dbd
acc3 80bd c9be 6d3c 9f39 ca3c 1a4c bb3d
d78d 3b3c 87e5 1c3d 20b4 7dbc 85d6 1f3d
ba4a e6bc 6e54 b43d 945f 093d 0071 f13d
fab8 4a3e 4538 f23c b4d6 29bd e219 7eba
385b 3abc c595 723e 6d10 5e3d d3b8 ecbb
cde8 ec3d 5f44 a13d 7c84 b33c d609 7c3b
05a7 393b 57ec 733d 9528 c6bc 529e 8c3d
181c 2abb 226c 4e3d b1f4 e93d b47b a13d
2237 493b 8047 653d 025f e6bb 7afc cd3d
6976 2e3d 3b9c 353c 11c4 64bd 46bb 44bd
f568 8cbc da46 903d 024b bd3d 2057 403e
e2d6 283e 8441 a7bc 2b1d f43e a763 873d
ec83 843d 1378 9dbd 986b a3bd 7dfb 7cbd
0df4 2a3c 5064 58bc 84f5 20bb c082 9ebc
3c7d 87bb c15a 473a aa2a 0d3d 67b4 393c
31b0 583c 7554 13bd b93b f3bc eff0 423d
af1b 653d ebf7 403d de00 f53c 6561 8a3d
1c3e 9c3d a540 9c3d 2efa 853c aee8 f0bc
b434 233d 6f86 333d 5053 50bc 3f6f 2d3d
ae46 3c3d 5db9 b93d c294 1d3d a20c a33b
c1fd 67bc 4289 38bc 1f0c 843c 7e9d 4dbc
7b2b 12bd fdc5 793d b4a5 3d3b 58ef aa3d
47de ef3d e572 833c 4ea9 d6bc 3ac1 e3bc
a0d8 a73c e547 a43e f553 2b3e 4472 133e
0c2f 433d e50a d6bc 0b64 e8bc 8007 fc3c
619d 0a3e f3b9 793d c8c7 0a3d 8845 873d
93e1 a03b 68df fbbc fd9c c93d 9c89 51bd
c6b4 f73c fd60 1b3d 31d8 07ba 7b24 073e
8bc9 963d 7806 863b e1cb e23d 5ff3 f7bc
3ebe 263d 4156 8c3d bbca 873c 2f2c c73d
faa0 883b 6261 b23c 4ef0 283d 9c60 3c3d
700d 04bc 3533 83bb ce0f ab3d 3e0b 72bc
ba65 843d a9ab 153d e0de 04bc fabb cb3c
5a14 023d f254 ed3d f546 7a3c b995 763d
0a50 283c 8485 2dba 818b 213d 2f07 ce3d
e68f f43c e8d9 00b9 b765 803e 6705 2f3d
af89 833d 3d4e de3d 640b ae3d 5a82 8a3d
806f 833c a925 c13d 6e17 013d 3d41 1b3e
d736 ed3c cb4a 10be c1c2 1d3d 9e36 913d
aa0f 363d b612 853b 8bb9 a03e 7f95 cf3a
2551 013b babf 033d 85a9 313b f6be 69bd
96ac 483d 3115 a73c 4900 1f3d 0440 2a3d
b406 3cbd e06d 113d c231 583e c2fb bc3d
a9e6 ab3d 62e5 87bc 8efd a33d 9d87 463c
aa97 b43d 09c4 343e b5f5 3fbb e511 c93c
cfd2 013d 2fce 5d3e e87c f73b ae2c 573c
42f8 a23d 0f10 1a3d 6a29 203d 50a1 83bb
b372 0d3d c993 543d a5d9 3b3d 2f11 2b3f
7e28 b73d e400 0dba 6f99 133b f8ef 103d
a2aa 34bd 1357 013e 31c7 d73e 7146 1c3e
39b5 da3b b645 c23d 53d9 7ebe e4ee 1f3d
fd58 c0bd f938 3a3d 593a 0bbd 44dc 6bbd
259e fd3b 46c7 113e 7b12 743e de48 0b3d
8259 543d af0a a13b 5990 6b3d c11c 0bbb
1516 7d3d ace6 653d 2750 a13d 016a e83d
2e9f ce3b 7ee8 b6bb e478 ba39 5f7a 5b3d
e919 0a3f 0ed7 ee3c 048c 953d a54e bd3c
a1e5 26bd 2a38 763c ec05 c9bc c4ec 93bc
068b 00be 5b4b 49bb 6628 bb3d 1df6 4b3d
c222 223e d55e 313d 8f7b 43bc d262 6c3d
5715 903f 5089 443c 1223 df3d 2122 86bc
ed88 bc3d 5c91 b23d 9d4a 203c 54e4 5ebc
5d8b 543d e114 5cbe b817 693e 938f 8abc
7548 5bbd 1288 adbb 8e90 bb3d bc1a 993c
51e7 2e3d e5be c6bd 7252 113c d33c 64bb
13a9 823d 1863 443e 73b7 8f3d 40fd 463d
267d 263c 8285 6a3d e5fe 673d d611 c7bc
1f2e 2c3d 9b61 5dbd afcd 2c3e 9b00 90bc
f718 143d 4625 e73d e6ef 613e 1891 7bbc
ecd7 6a3c 8648 a83d 7a58 783d f87d 0abd
0794 6b3d e2b0 7a3d 8200 fc3d 7c8b 18bd
8293 89bc f7b8 973d 063e 8dbc a176 f63d
5d69 b8bb 0666 e4bb 59ad 0c3d fbc9 893d
ba47 8e3a 746b 0ebd f79a 9ebb 6003 123d
be2c d8bd cfa5 30bd e7a2 5a3c ce2f 743c
bd43 94bc a917 753a 56ca 14bb 75b0 22bc
9b40 3c3d 4d18 4d3d 969e 9d3c bbfb e83c
3011 fabb 0d4c ac3c 4168 71bd 6723 e23c
67ea 9f3c 183c e83e cb94 7c3c 71c2 a23e
501e 1d3d 0f64 813c bc2d 993d b45a 88bd
40e7 1a3d 1f1e 86bc e0b3 903d 76e2 053d
1f15 ea3c b683 803e 058c 523b 8db7 113c
6c84 f7bc f2d9 633d aab1 44bc b84f 943c
d64d eeba 2459 363d c9fb 4f3d 802c 083e
87e6 94bc 9be2 993d 7345 f7bc 4513 a53c
0b4b 0f3e 54a3 153d 9f46 7c3d 8f01 88bd
c205 8abb cfdc c13d b5ac 8fbc bc57 26bd
121f c73c 32a9 a23b d666 c43c f2f5 aebb
b5be 7c3d 5853 4ebd 755b 9ebc 129c 833b
3e2c 783c 45f0 463d 3976 cd3d 9299 843e
5418 3f3b 1c24 9f3d e2a3 173e 447c b7bc
b318 823d b899 5e3c 4d80 373d 1b65 0b3d
9219 c9bb 79d6 ea3a ae72 31bc 55e0 ae3c
5a99 a93d 8dcc 963c a6f2 3abc 621c 103e
32d0 0c3d 0a67 223d 2188 32bc 95b2 8dbb
452b 13bd 730c 963e 0bf9 c2ba 8dff 533b
cc20 0d3d 83f2 103c 4d88 f43c ae89 803d
5fc3 bdbd 4da6 eebd 8f3e 853d a327 6e3d
0e90 3bbb 81a6 483e 0731 1b3d d93c b8bc
6002 17bd f084 a4bc 3ff1 523d 68d5 f73d
5623 203d 5919 8d3b 11f6 6f3c f270 583e
5ee3 453e 4375 6f3b e00a 073d 87d7 6d3f
99af 723d 2409 d53d 117b bdbd 1b86 debc
d45d a53c 65fb e83d ca7b afbb fea8 513d
ee04 1cbd 2ff5 363e 0a09 92bc 8b0d 023e
954a 693d d46f eabb d612 3f3e 552a c33b
08e3 903d a6a4 ac3c 2696 8fbc 2976 e2bc
eb65 b1bc 5bd5 013d 7217 903d cbf6 21bd
ad36 debc 7134 54bd 34a6 2c3d 1f1a 863d
d43a bf3a e2ee 8dbc 4bd2 223d dd98 853d
9373 c0bc a845 30bc a2dc 0bbd f090 eb3c
9fb9 a03d f02b d23d 48bc 5b3d 904d 89bb
dd39 643d dbfe 723c 0346 e5bb aa3d 6c3d
6a3a d63c c33e 573b dd2d 263c 02c9 6e3c
2a39 803c 9ef3 cebc 48a9 553d 6dc8 77ba
44af 63bc 0790 4cbc 3b68 32bd 2df8 803c
044d 763c 85d8 483d d419 dfbb 538e 0b3c
677c 103d 7c73 e239 34b2 fd3c 00f9 723b
4439 983d 7533 163e 23b7 5e3d cafd 703d
8224 6e3d 1151 d63d c519 00bd c158 38bb
29d5 813d ce8b 81bc 3881 883d 9c13 4bbc
8741 0cbd b3ea 483d 0fee a1be 32c8 413b
d9ab 703d 53d5 2e3c ffdf d63d 1b0d a33d
3b31 503d c2dd ecbc 73c9 a33c 372c 12bd
7667 83bb eb8a 6c3f fcf6 023e 9098 6fbc
b337 e9bb 26ec 5fbc 6906 013c 62d8 0b3d
c9bf 553d 5628 863e 2b54 dc3d 738f 2b3d
1e57 133e 8157 d4bc 4b45 933d 50a2 26be
d480 8dbe ef45 8c3d de73 803c 9dcc f33d
a3ff 993c 6e85 2f3c 1988 9a3c ad9d 843c
f1d0 9d3c 68b1 513d 2437 243c b0c5 9e3d
5fc2 893e 8ac1 1e3d 4ac9 d43e f5e8 593d
8c38 b8bc cc29 af3e 5961 313d e660 133c
19b5 283d 64af 703e 4c84 6cbc c5cc bd3b
d3f0 343d 6445 a43c 1023 40bd ebc6 203d
bceb f9bc ea6b 293d 149b 123e e5b6 9a3d
e0ea 70bb 7b32 513d 8f14 b4bc 6277 883d
fd48 58bc 0b21 8d3c b30e 603d 79ad 37bd
b094 1f3d eae7 503d 39bf c3bc f770 a73e
cfe7 6b3e dc41 c63c eb78 d33e 9cdf 943d
a664 1a3c 6d8f 83be 315c 37be 46dd 86be
ad74 563d 7876 6dbc ecd0 353d efb9 87bd
255a dd3c 5511 513d 45a1 b6bd 67d1 283d
da24 96bc 7a26 de3c 5266 85bd 06c3 f0bc
5186 643e 7398 143c a9bc b73d 9518 a03c
6f64 993d 4cf6 863d 9008 a4bd 6660 6f3c
a658 d93c bae7 503d eabc 2cbd c9d3 e63c
549e 543d 1405 e33d 8623 d93d 60ea 0f3a
00d4 263c 4abe 563b b5be 963d 5a58 e03e
a137 60bd 175f 823d 0240 a43b 61d8 be3d
8b3a 733e 0055 a3bb eda7 bdbc b41f a3bd
9de0 4d3b c10f ee3e 8555 7d3e 2d9a 263e
d351 833d 5ae5 e6bc 8d5a 4dbe 3ef1 053d
ec4e 0b3e 6fc5 b83d fbc5 ed3b 0458 c93d
835a 29bb 8eae 413d d38b 293d 5c8f 98bd
0244 913b 1f67 bbbc dbed 2bbc 2d50 9c3d
f254 873e 4e86 013e 29f2 353d bf86 e6bd
7708 063b fd1a f53d 77f9 08bd 3bc6 86bd
d437 23b9 2ed2 533d 4992 dc3c c2b3 1b3d
da81 69bc 797d 2e3d 25c5 e83d 490e 853c
851b 473c 4c16 393c 18b7 263d 71c1 12bd
d7f0 173d 42bd 193c a3ef 013e f73f 5b3d
641a 60bd ba33 eabc 251b 1cbd f4b9 2abc
371f 903c 3cc0 863a 645d 3b3e 3cfa 383d
3611 2b3d e3c9 c13c 5d47 22bc 85df ea3d
2f84 aebb 1360 aa3b ca69 1d3e dd4e f83d
8851 033d 97ba 81be ea4d 553d fc0d b83c
cd4a 27bd 7d60 143d acc5 a43e 777a 033c
c8ef 9ebc 2f7f 04bc 5422 103b 1b6f 61be
b348 383d 8d58 e33c 23f1 cb3c 989c f0bc
202d 0838 4df0 a7bb 6d85 443e dfaa 133e
4023 003e 34b4 0cbd 7981 623d 53ee 623c
8de5 653d 3340 00be 5df0 8a3d b307 9e3d
143a 4d3d f5dc 823e 79af 953c 9ece 0b3d
a9f4 ac3d 7313 033d d02c d7bc 6e87 173d
d3a7 17bd 4ca9 063d 2ad0 3bbc 8f98 163f
7a00 ca3e 579f 6ebb ae01 8cbd 4026 d2bc
c67e 13bc f584 383d c81f d13e a0e1 e23e
5c23 813c 1ca8 5f3d 5cab bfbe 3b29 833d
ab8f 023c e293 a13d e6fd 953b 8178 3f3d
eac8 923c b7fd e13d ec07 223e f099 493c
09ef 773d 634a 283b f356 33bc 99b2 233d
2296 b83d 4b1a 1f3d b0cf 993d 4ca3 8e3d
5e21 033d 4022 463c c6aa fcbc 6e90 093d
5f7d f23e 7c55 8e3c 827b 733d 4fb1 6b3d
25bc edba d956 be3c fef7 c13c 349d 933c
08f2 a5be ae70 30bb 9bc1 023e c9ed 94bc
90a5 013e a7bb 593d d1da 0bbc c87c 683d
2bc4 9b3f ffd0 953d 1d33 c33d 1148 26bd
285e e03d 855d 853c c763 61be c7cf eabc
d5e0 073c 6c25 39be 3a71 433e 2bb8 25bd
b22b eebc 1437 39be 1d71 f739 8b38 3fbe
009e 573d a9ff 9cbe c257 16bd c303 48bd
a43e 083e 960f f1bc 3390 843d 5fbb 1a3d
ee9b 113d 79f5 24bc 0f4e abbb 2bda 893e
18a0 323d 73c5 1fbe 7c22 b63d 574c 13bd
bc4b 513d ffb1 a53d d99e 223e ebc3 783c
de60 923d 02fd 0b3d 59c5 863d 5caf 13bd
0e40 ad3c 9072 cf3c 52a8 6bbd 014c 4c39
5e2e 9dbc e9d8 983c 38df 9cbc f9b0 bc3d
008f ddbd 444d adbc eeba 8e3d 18ab 51bd
569f 463c a766 f93c 9969 803c e254 94bc
f181 aebd 2040 9ebd 2e6e 9fbc ce96 443b
0487 47bd f931 293d 3fec 863d 6930 623c
ac8e 01bc 666b 4b3d bd2a 353d affe 773d
bb76 55bd 8385 d43b 6000 acbd 8ff2 673d
c0f7 793d c8d7 c93e 46b1 1b3d ac4d c03e
1466 c6bd 6fd5 bc3c ca78 ba3d 7b84 23bd
c405 9fbd 6e9a 773d 1168 083d 3d02 653d
c549 9b3c 321d 77be 7964 1e3d 8347 b4bc
be10 043c da2c 0abc 6b53 a3bc 08d5 96bc
aa3a 7bbc b7d9 1e3d f495 883d f9e9 d23d
a9e3 eebd b22d 423d 4e91 b2b8 5a76 c6bd
4551 c7bd 40aa 1d3d 89ee a13d 0e35 e5be
308c 383d 2b74 cd3d 7d53 473d 0248 7b3c
d5f8 b53c 5828 4ebc 7b52 2a3c 43a0 cebc
70e2 b13b e980 123d a51e a7bc b23a 183d
095e a8bc efed 873d 8301 e13d f402 7d3e
0752 4e3d 215d 823d 4f2f e83c 96db 4cbd
d5ef 4e3d f910 53bd cda2 9a3d 5d42 11bd
f3d4 12bd a81f 0f3d 4458 5a3c fe57 0f3d
4454 7e3d e031 333d 8ebd 8e3b c4b9 373d
9b62 02bd ef89 03be 945f 973d f9c8 433c
dcb4 20bd 1841 983e 6592 7bbc 6a54 56bc
53f9 4b3d d6ba 8d3c 3a41 cfbc ef16 7e3d
75ad 49be 8278 a2bc 2641 2d3d 9a25 173d
a6a3 f83d cdff 423e c6a0 ac3a 9dd4 753d
a55e eb3c 1d85 3fbd 1e9a 4e3d 256c c43d
3716 183d 1d81 8c3c 9d5b 3d3c e4ad 0e3e
0c1d 603e b012 8cbc 6315 0b3d a55d 573f
df02 0e3d fc91 053d ed81 f5bd ba3b 3c3d
40df 66bc b85a 003e 56a3 493c 1a28 c83d
9cce 253e f4c1 153e 7c66 bbba 35d7 e53d
6bed cb3b 5396 0fbc 13e3 3d3e 3a2d efbc
f6b8 5dbc 89db 17bd 99fc ddbd 9378 8ebc
45a0 d13b fd7c eebd d728 923d ab5e fa3c
1b5d 8a3a cc82 debd 2f40 8b3c 2fcd 943c
9598 fabb 97f4 033d 924e 0d3d 6dc8 8e3d
67b7 8fbd 2c88 873d 7772 eabd a2d3 203d
cdc7 083e f9e3 b63d 0c1e 653d 8d32 823b
35dc e03c 53dc 49bd d0ee d43c fe76 073d
680e 2a3d c5e1 c7bc 3664 1a3c 4d18 753d
ef62 8d3d 66a2 3cbc 4494 12bc 80c6 63ba
ec23 e0bc 0e8b fe3c b21a 18bd d937 de3c
dabb 183d 75ee 14bd 85a7 663d d496 b73c
7ebf a23d a4a3 853c a20d 3a3d 0768 813c
666f 84be ad42 ecbc bc51 eebc d496 ba3e
1d57 5cbc ec97 4c3d 0710 91bc 7d5a 06bc
eb4f 483c 220c c4bb 82c1 443d d96a bf3c
eed6 be3c dbca b83d 4a57 adbe cc25 813d
ad8a 903d e029 c8bd ce58 873d 0da3 ed3d
a86d 123d e83c d1bc e77d 8b3c 66ea 8f3e
3726 eb3d 3528 5d3f 6471 b43d c78f 183d
2f40 14bd 742c 3d3d f9dd 1b3d dd74 133c
2a3c 6e3d 3544 703e 763a 07be 15a4 2e3d
6b15 2bbe 8d61 70bc acea 6d3d d34e 43be
776c 97be e32f ea3c a4bc 3f3d 5f84 ec3d
4fe5 c3bc b143 a03b 0d0d 6a3b bf82 963b
40c1 edbb 4aab 783b 478a 9bbc 6c97 c0bc
0551 563e 9266 553d 063b f63b 80bb d0bd
2ee0 1a3d 726e b73e 266c d2bc 4be1 a7bb
9cca d93d 285f 7f3e 9af8 453d a2b0 55bd
36e6 8b3d 0fa6 523c ac6f 87be fdaf e9ba
e9d3 9c3c f33a 35bc 9b80 fd3d 273a b4bb
e6ef b43c 2345 483c 07d1 683c 6dc8 123d
c2b1 a9bb 936d 1cbb d147 a6bd 1ccc d1bc
66f3 06be e80c 123d 89db d5bd 9517 16be
bb6b c7bd e2b6 023d 091f fd3e 8ba8 d83d
a631 323c 53d9 95be 7f9c 97be 501a d5be
19c0 2a3d 4c67 833c 0a34 343d b1e7 28bd
f276 4bbd 9572 4d3d 2ddc 98bd 1815 b63c
141a d9bd 7085 16be bfef 0abd 12c4 97bb
1ef9 233e 9024 74bd d591 633d 4b0b a73d
0e52 543d 014b cd3d aeab a3bd e556 10bd
068b 06bd 2370 22be d855 febb 4d1a 783d
d6dc 963c 7177 9b3d 3c95 b63d 916b 8f3d
65df 953c 5c6c 26bd 1aec e83b b262 7abc
2719 92bd d57b 683b 2401 8b3d f156 d93c
649e 153f 3f8a fa3c 3658 2e3d 7a33 93be
1471 17bd 31b3 043f 0f5e 983e 63c8 bf3d
2c8f 9d3d 15d5 f639 7472 f33d ca09 bb3c
672c 0c3e 9a95 633d 51a7 5b3d e5da 753d
3f38 843d bf83 e63c 4dc4 423d 5386 c43d
7b50 393d 5d27 ff3c 01ab 7bbc 6707 c13d
5629 34bd 9eca ff3d eeb7 3f3d 151f 8a3d
e291 223d 31da ab3d 1f59 183d 92a1 91be
4063 a6bc 2704 98bc 791f f83b f7dd 233d
81fb 4c3d 2589 8bbc 4ded 163f a87e 933c
b9b0 7e3d af14 f2bc 7a33 c2bb 5ec8 2c3e
e37d 0a3c e82f a0bd 39ce ec3d 815f 3b3d
e8b7 783d 8808 613d deb0 e1bd 8f49 49bd
5b1d 423b 268a 8c3c f0de 3c3e aa88 e339
3b0e 95bc ec6b 113d 608e 16bd 7af0 b43d
170b cdb9 5724 033d d5ec 223d bd6b 123e
9fce 7a3d 975a 99be f424 2fbd d59d c83c
2c44 593b ac03 823c 950f 6a3e 2bd9 b83c
8d29 09bd a4d9 aabc 44ce 6abc 24ac a2be
8a61 573c 044e a73d c8f5 453c 83a2 f9bc
a4cb 1dbd 4c5f dfbc dc80 783e 4fcb 083e
7d07 e9be e53f 4c3d 57de 913d 2a2f da3b
0c5e 603e a356 82bd a060 9e3d 3efb 9dbc
3bc1 383c 42e4 4ebd f837 5c3d 46ad ad3c
d548 81bd 0369 833d f4a4 c93c b467 003e
b772 33bc c804 cdbc a3b2 1cbc 83e2 acbc
e37f 3fbe ac75 123e 8260 6c3d ec72 623c
16fa be3a 98c6 0eb9 4ac3 d5bc eb81 7bbc
4ef6 b9bd 1f06 e43c bebe 5c3d 4531 b9bc
3b3e d23c d21b 2d3e 9528 9d3c df1a 703c
d97c ffbc cdb9 adbb 4607 983b 2e95 86bd
ec3a 493d 7e93 44bd 2c6e bebd 93d4 383e
355f d1bc b657 293e afb2 63be b7e5 c23c
964d acbb e2cd 95bd b4d1 613d 0000 4fbd
6a78 853d 60c1 3dbd 9a68 9c3c ff95 5fbd
9835 b03d c923 3b3e 3105 9fbb 5510 c13d
9295 733c 4ccb a73e 82a9 e6bc 1448 403d
8665 03bd e2a4 6bbe 653a a33e f0a6 3ebd
3b50 613c 6ab1 4bbd 36bf 353d 0fe1 8139
b62e 76bd abaa b73d d6d1 7a3d a939 e3bc
49d9 043e c19b 9ebc ab13 093d e3f5 af3d
0518 b3bd 665f 6a3d 17a7 633d 462f 4b3d
ef17 e1ba cbc1 96bc 4232 66bd 6220 b1bc
7221 edba 6c64 043e 0f87 83be 47bc c33d
14d5 c4bd 6a2d df3c 3ba2 74bc 4e5b 0abe
6943 20bd 0804 a83d e0c2 063e 7272 eebc
236d 9abb d82d 3abc 208c 3b3f e2dd 163d
be76 253d 4706 fbbc af9b 6b3f bc10 adbd
4abd b33c 200f d5bc a51d be3c 59ad 4e3d
e8c7 723b 8899 3abd 3732 bdbc 30d4 093a
1355 423d 27e9 ccbc 7469 95bd 4057 c53c
d6a5 a63d 302b e63c 2f5b d1bd 551e 4a3d
54f0 82bc bf3f e13c fe87 5a3e e93e 29be
eb43 793d bb9e 143e e19a 72bc 1211 95bc
d618 ff3b 4fc0 8a3c 5a2b 7d3e dba8 3ebc
f049 9bbd cbcf 25bf 1d93 8c3d ebb3 ca3d
ba08 46ba 14f8 483e 772d d83d 44ee f1bc
2cee 50bb 16d6 753d 292a 61bd bed6 8bbd
8697 b23c e06c 97bd 3a7c 16bc 03cf a2bc
f864 2abd fa2d 063e d049 9f3a 86b0 32be
2a35 53bc e189 f53d de0e 39be bbf9 05bd
b521 c93d 6969 593c b77e c5bb c8c8 3dbd
7072 5c3d ff06 36bd 7f34 47bd b6ca 4f3d
a0f1 8c3d e67d 3abd 9850 08bc 066a 523d
1cf4 9fbd 4dda e3ba dcf6 69bd 426d e8bc
79ca fb3c 1437 ae3b 8256 20bd 181f 533e
b0c9 ebbe 79c7 fcbd 7ae5 8b3e c960 d7bd
3ba1 0dbf 2546 b9bc f36c 473c 05a4 2abc
c65d 60bd da70 dfbd 9c0d c73c e1b2 473d
170c 15bd a915 ddbd 1748 8abd 9701 1cbc
5683 2abc 32cf a1bd b53c d13c 70cb 1bbd
22bd a9bd 650d a9bd e58e b5bc e2b0 c2bc
95ec 2d3c e2c8 153d 07d9 1dbd 8fc4 2dbc
f462 3cbd 4ce1 d83d 1dbf 9f3c 7c5b 653c
a9e9 1fbd b51f 873d 5e23 2c3e 9555 26bf
f502 883d 887b aebd 0c8e 9dbd 6c4b 96bd
174c 853a a7a8 fa3d aa2b 87bb 36d2 9c3b
1171 bfbd 9b16 943c 2a56 d13d 9c16 f23c
847a 1c3e 24bc d03c d6dd 83bb 429b 383c
855d 14bd cba7 c33b 90ba ab3d 52e1 e2bd
ce5d 783e f427 49bd 6677 db3c d445 dfbc
8785 913c 057b 1bbd cb06 183e b5db edbd
9e52 4bbd ebae 17bc 0d96 113e 59a3 a03c
5ff4 0d3e d3b6 543d 0b5b 563d 342b ecba
6d98 9a3d 1e34 e5bb c705 fc3c fcd7 14bd
8123 8f3e ba76 983d e837 733d 9c58 b9bc
7b58 1f3e b8a8 0d3d 32a6 b1bc 2b04 4b3e
2d92 02bd 8535 053c ac6f dcbc 3715 bfbd
3f44 79bc b71e 39be 74e9 8e3d 3895 cfbb
4489 943d f96a 81bd 86cb b53d d2ca 0cbd
239c f93c a185 1dbd 45c3 bbbc ecc4 62bd
b82b a23b 37a5 013d 8845 19bd 3f10 d8bb
b732 c6bd e125 eebc 088b 19be 3830 3d3c
8f38 a73d 259d 1cbc fd8c 0dbc aa97 03be
8dd9 583d 240e 0d3d fd43 a2bd a430 db3d
c48b 013e d546 543d 39db 3a3a 465c 18bd
c32b cf3c 7498 8a3d 0bee ef3c 8f05 dc3c
534f 043c 1320 1d3d 63c4 1bbe 2c9e 7bbd
ca42 2cbd e6e3 fabd 1123 223e 76a4 90be
fdc3 7b3d 0e38 373d b5d3 3ebc d625 42bd
ef3f 143f 268c 7b3d c376 d1bc 34a8 953b
b9ee 2f3d 0227 b2bd 809a e73d b944 a53c
87b1 dc3c 974e 27bd 8e1c 98bc 0b08 cfbd
b3e5 993d 6591 b73c 2da4 f43d 6285 eabc
391c 89bd 8f0f e8bc 4c17 8e3d 4d26 b23d
f5c6 623d dc4c bc3d 5d11 d33d e3ae 41bb
92ca 293d 5e60 44bd 8dc8 923e 3f80 9e3d
b53b 863c d938 b93d 1548 ce3b d730 aebc
1191 953a 6fcb abbd b045 c43c 90d3 633d
3f51 89bd 9bff ee3c 0fc8 203e f9fd 993c
48f5 6fbd 9757 33bb 88ff 81be 2393 9cbd
da4a 553d 7b33 57bc 5114 56bd b253 17bd
6d43 6b3c 85eb 0b3d 679e 343c 3096 d1be
8503 92bd df1c 27bb ca37 b83d 77ff 163e
1bc3 c63e e615 3cbd 9341 a1bd b101 c33c
9f00 b5bb 8673 e93c 18b7 c03d f693 3cbd
5f61 033d b205 8c3a d8b9 d43d 6c26 b53d
aec1 e03d 0301 dc3c 73f5 d0bc e154 91bd
93e7 aa3c 5e6c 22bc 532e 083d 06ec a7bc
8673 95bc 5bb4 9b3e 7e6d e43d 89c5 2c3b
541e 8c3d 05d3 6e3b 3db5 183d 6955 67bc
2d78 36bc 254a 97bc 0802 563c ca2e b73a
bee9 8ebd d083 583d 2c35 9bbd 0798 093e
aff9 1c3e 2dda bb3d 6ea4 853d 15ba 9dbc
b666 0c3e e418 3abd cdbb 4c3e d425 383d
4b84 213d 8879 f23d 4a59 4abe b631 2f3e
0f97 333d 2794 48bd 1a6e d33d 9993 513e
87ae 523d 310e d3be 717a cabc 186c 69bd
4992 313d 922c 34ba a181 6cbe aa84 b03d
ed9d 8d3d 4747 733e 647f e23c 9a4d 84bc
2833 9cbd 5024 15bc a2e9 00bd 6962 363d
450d 43bd 56a7 91bd 2119 d73d 060a bfbb
ae54 623d 0df1 ac3c 6c78 d33d a899 b6bc
6515 a5bd bc2f cfbc eb41 03be 01b3 2abd
9fe6 a13e 5502 3fbd f34e fa3d e36b 5c3a
4b29 d13d aee1 45be b33c b13b a6d3 42bb
b037 1b3d 9fc0 b03d 154c ad3d 85ed 84bd
94fc a0be 20d5 893d 4c62 243d aaec 3bbd
a77b 0d3e 239d 653c d994 05be 03f8 33bc
858a 2dbf f9ad 973c b6ba 8a3c 2229 833d
339e 13be d0a8 31bd 26c5 173d 25fe 203d
00f3 4b3d b848 ee3c a563 65bd 9c69 413e
73f6 683e 518b 783d b863 5d3d 1ffc ef3d
a1ca 27bd 63ea 5dbd da5c 663d a590 52be
cdc4 363e a4cb 64bd 4e93 ca3b d81f bf3c
a20d ff3c 372b aabc dc30 e0be 1e97 393d
3358 583c aa8b 883d 337d dc3c e6cc 31bc
d2bc 293e db4c 503d af4e c13d 2dcb 793c
c21d 10bd 4a77 4b3d d4f6 a6bd 84d5 34bd
146f b43c 2179 b1bc 4603 cbbe c851 873d
0d46 adbc a321 cf3b 83aa 403c da85 babb
82d3 75bc e557 e0bb 01cb acbc 124a 143d
9cec 9e3b d373 c03c a9a8 293d 956f e1bb
9970 cc3c 3260 b03c 9905 6d3c 9571 293c
1336 833c 2ca3 1e3c 6c31 993b 23c1 833c
8512 2abd 0c74 dd3b d090 9e3c 05f3 a83c
d71b 09bd 4d96 a9bc 8ca5 db3c 0835 d03b
5484 10bd d667 34bd fc62 513c a85f 583c
aacf ffbc 289f 9c3c 5773 09bd 04c5 dfbc
cf8f 81bc dd39 a8bc f970 25bd 3711 843c
505b 10bc e069 523c 96d2 763c fd08 203c
105c 53bc a7ea 053c e350 c4bc 3f1a ccbc
1d99 2ebc fd7b 2a3d ca38 f83c 5c42 d83c
3b59 c3bb 14ea d73b be4b f13a 0de6 e33b
d90a 29bd 7d67 233c f907 eabc b294 3abd
50f2 94bc c099 56bc 6fe6 8a3c 52f9 30bd
85d9 e63b cdff 26bd 10ec 94bc f56f af3c
dd9d a8bc 463a 33bd 6fa1 093d 3f8b b7bc
5fad 0d3a e832 94bc 8d05 25bd f10c 28bd
3c7c 12bd 357b 2abd c892 10bb 17fd ca3b
07b6 c73c 6235 fa3c 1baf 09bd bac1 bcbb
650d 22bc d949 6bba ac6a 1dbd 90af dcbb
fd74 673c 92ff 30bd 5dd0 aa3b 6438 9f3c
535c 86bc fe51 f1bb 6a1b f3bc 8c1f 2c3d
1d7e 26bc c059 10bd 7077 80bc 07f3 013c
6bb8 0f3c 1de7 61bc 4eab b23c 1657 7c3c
7d4f 67bc 8382 0fbd e676 38bc 72f7 75bb
430a 09bd 6ba8 41bc 9bf8 833c 8c39 d4bc
ed8a 213d 89b0 a3bc 30c5 db3c 42ed 783c
e96f a7bc 3da1 e93c 4784 08bd eb0e cc3c
2fd8 c3bb 93eb 84bc 47fb c9bb b55b a93c
6c0c 9bbb 2c13 dd3b 71ba 62bc db88 063c
b045 113b 3976 a1bc 789f 17bd 5232 743a
d602 b0bb 3be5 0d3c 2c8d 11bd 6eb1 3ebd
8c46 d63c e7ef 813c 5850 533c 2ab8 f53c
7c3d 91bb 5c74 18bd 9393 423c 70f0 d93c
6ca9 1ebc 1c23 58bc f3ed 013d ea01 313d
5d0c 21bd 0ce6 cabc 33d8 0e3d 883b 113c
f6a4 fb39 e97a 21bd 2a05 be3b 75d9 ec3c
b706 ccba edd8 2d3c 2d48 293c 9845 9abc
3ccf 193d 39d6 eabc f093 de3c 8395 003d
976b 033d 127d b3bc 463c 3bba 65eb ef3c
77b1 ebbb 78c0 9e3c bb23 ce3a afc1 0dbd
33d0 073c 9929 e73c 8f28 09bc 85a6 e2bc
12b5 323d 7d04 a73c dd4d 2dbc 88a6 943c
5d22 ee3b 5f21 033d 0701 883b ebd0 8d3c
8a14 3dbc 6fc7 0b3b 6405 5b3c d0c8 1dbc
2223 98bb e8c7 103d 4882 19bd a4ff 9cbc
14a9 6dbc ea28 37bd 4190 223d 3d89 2d3c
c6e4 fabb f637 b0bc 0a96 36bd dd8b eb3b
8990 20bd c01e 9ebc d4f7 dcba 60ab 1e3d
1271 b53c ccea 5dbb 37bc cd3c 2e89 f3bb
fe71 f4bb 33a9 01bd 471e 40bc 30d7 d8ba
c9c8 603c 6a5a 35bd 21c6 e5bc f3fa 83bc
d094 153b c341 c6bb bbfd 0bbd b6c4 7dbc
07d4 423b 0a5f fbba 91f7 293c cd96 ab3c
f6f5 ba3a f56e 2bbd 227a babc 3cc9 5abc
3d4a 2b3d 9852 5cbc 08d9 963c 2ece b4bc
3ce0 52bc b8b7 14bd fb22 cb3c 0eb2 343c
7339 843c 212b eabc f594 edbc 5fba 4fbb
f20b fdbc 6d91 223d 3c0c 14bd 233a 0dbd
4251 c93c 5c8d 983c 7d63 acbc 684d 9abc
f3e7 423c 3219 123d 032f 063d a116 e33c
09bd 23bd 1956 eabb 8e81 ba3c c341 86bc
9d6c 6bbc 0ea5 32bd 8549 65bc 468c 363c
757f 223d e730 8cbc 5927 a3bc 546b 10bd
8012 df3b fed4 f03c be38 30bd 45b5 2b3d
0f84 043d 8127 e83b 73a5 cbbc 7556 ad3c
c098 d23c 576c 06bd a046 9b3c 3664 32bd
665d 36bd 5d7f abbc 1271 753c a9df 243c
5122 a6bc 605e 163d ffe8 0e3d fc45 15bd
b276 3fbb aebb 75bc 8dc0 11bd 95fa 27ba
0e05 3cbc d16c e43c d6de 35bc bdd4 afbb
c2a6 313d d785 c83c f88d dcbc 1669 b93b
b521 223d bf37 c5bc 3308 87bb e40b 1c3d
7d74 e5ba c139 053d f887 ddbc 71ef 2e3d
d497 d3ba 715c 613c 2489 5dba 746e 00bd
7859 123d cd57 293d 6703 c53c d0df 95b3
29d2 203c c7bb 85bc 31f3 a4bc 8724 c03c
189b 92bb f071 93bc be66 f9bc 05ed a9bc
ce9f f6bc c2b3 33bd 41b6 e43c 79c8 653c
7f8b cfbc 0b8f 8cbc 5d83 a23c ca2b 36bd
1f86 063d 3a30 f5bb a267 fb3c d85f dfbc
4eb3 393b a5ce 203d bfdb cbbc 216f 273d
11d0 a1bc 9a52 b53b af4e 833b ae84 7a3b
42e5 b13c 4895 5abc fece 713b 9167 28bd
5d38 223d bfd3 84bb c1ca e93b d306 0e3d
0843 96bb 66bd bf3c e83b 5f3c 80d9 dbbc
248f 1cbd 966e 363c bef1 3fbc 1c53 d03b
14d1 97bc 52f3 313c 0b80 823c a5a4 27bc
83d8 09bd 0108 67bc 9471 103c 643c 96bc
4b16 c4bc d381 c63c b8aa 123c fab2 f3bc
decb b13c a1f7 e339 4422 5ebc c89b 9bbc
7482 15bc 1622 30bc a632 fa3c 50f8 d33c
4aca 7fbc 98b4 94bc 36e3 fabc d0a8 dabc
7048 1cbd a867 9f3c 40de 95bc 92c8 b53c
f969 e2bc 1382 073d 693d 25bd 4dce 683c
13a0 c23c 63c3 8c3c d80c 18bc bdcc 28bc
59be 223d 3182 62ba 3ec3 f4bc 059d 2e3d
6681 f03c 19fe a73c f33b 0ebd 7315 6dbc
e0e0 93bb 15b4 a03b 4023 573c a163 ab3c
ddd4 233c 24e6 5abc 548b d33b adcb aabc
7625 01bc 3c88 50bb 900c 1a3d 39d1 afbc
8427 9a3c e1a6 e5bb 0810 d2bb 9071 9ebc
1584 28bd 4281 b13c 2f55 443c ef05 0cbd
01ac adbc 3f59 4e3b a79a 0abd b1ff 92bb
8c9d 143b edd7 293d 3d7a a339 3f2c 493c
5362 05bd a6f3 373c 0184 233d 19ce efbc
1c0f 13bc e0bb 95bc fd4d 213d 35a8 2f3d
3d3e edbc e169 2bbc 6984 30bd e8ed 123d
b67e b8bc 4366 02bd f5a0 2bbd abc4 cebb
97eb 8f3c 4564 2c3d 26d5 fa38 f3b6 06bd
6546 25bc f01c 9dbb 37a3 cd3c a508 a8bc
dfdc 033d ecfd d2bc 8ca9 753c b7ae 89bc
27a0 c7bc d729 4fbb 689e 99bc 8ba1 8b3c
2914 af3c e9e6 e83c 5910 a63b 5bcc c13c
f691 fabc 55ef ecbc 2591 243d 9d57 223d
fc75 d2bc 2b9e 0a3c 09d6 23bd 9b1e c6bc
b60e fa3c 6c56 d73c 733f 033d fa2e f03c
cf1a 48bc 9bdf 03bd fa87 363c 320f 31bd
dcab 15bc 7af9 3abd be4b 31bd 1f43 0d3d
7894 ddbc cde0 673c b927 ecbc 517f 233d
9d65 e8ba 67d8 07bd e0b4 d2bc 722e 313d
f484 dfbc f461 90bc 1a34 f8bc c38e 4e3b
277a 453c 51f2 adbc 79ca 6dbc e314 0ebd
7e3a 77bb 892c 203c 217d ed3c 5b83 49bc
a3c2 09bd 9749 013d 0832 9dbc a1e6 aa3c
9b37 863c c00b 9d3c ede2 e33c 0ed7 f2bc
a564 213d 48bc 14bd 9401 52bc 1af1 7ebc
9d9f 2f3d d7a6 0fbc d527 ee3c 8bbd babc
d91d ea3c 3579 22bd 2631 c9bc 7bdc 03bc
caaf 053b ebef 0cbd 81ab 2bbc f2a7 abbb
3020 51ba 6005 103d eca0 953c fb9e c7bc
799d 30bd 81ea 2d3d b307 05bb 0588 653b
f5fe 2cbd 1b81 403c 080a d3bc e730 0cbd
64dd 90bc 7f32 c93c da96 33bd 2925 28bd
2691 cb3b 1b7e 8d3b fce2 1d3c e931 293d
7af7 f63b 5fb3 8cbc 2da4 22bc 4d32 773c
3a67 00bc 2470 dd3c 79c9 a93a 0507 2ebd
3c76 d3bc 8ca3 53bc b354 cdbb 1c1c 95bc
c9b2 6cbc 318f e4bb 5f63 023d 458d 21bd
f56c 23bd c139 a6bc 71fb 2c3a 256b 22bd
06e6 ffbc 0a7d f6ba fb4d 083c bff5 0f3d
c4cf 83bc 1a1b b8bc 7ccf 5abc 947c 0c3c
4ee0 be3c f510 2a3b 9102 e43c 668f f63c
3e45 b0bb 3228 313d c316 49bc 6dae febc
c0ea 55bc 0e92 313d 49f1 af39 2ae5 fa3b
f7c0 873b 07a8 013c 8c1a 15bd bd9a e83c
09bf a7bb d8ee 1c3d e89d 97bb 0f97 453a
ed0d 61bc c8f9 25bb 5b46 0fbd e01f 96bc
47b7 8cbc faac 343c 8db4 e53c 156a a4bb
6d66 a5bc 3ab2 303d 6684 b23c 87d8 a03c
6103 a13c 3868 ab3c 4bfc 10bd f47b d43c
58cf a7bc cabb b73b 5b38 09bd f651 34bd
00f2 993c 90d2 123d c0e6 1e3d dfb7 853c
efea 303d e95e 2e3d d91f 33bd ce72 b13c
1fca 24bc 0d97 ac3c f0b5 10bd cac9 7dbc
f5f8 adbc ffa1 853c efdd 413c ac9a 95bc
071d 1dbd b992 ef3c d13b 683a dd40 abbc
34ed d7bc 5a5e 323b 5cae 9fbc 55d4 a4bc
2fab be3b f9a4 edbc d889 d83c d46e debc
dfb8 093d a755 893c da4b 33bd bbfc c73c
fa5b b5bc 0a70 05bc 87c3 8bbb 2fb7 893c
41e9 e83b 314a e3bc d546 edba 78b7 13bd
11df 2bbd e83b 1fbd 4ef7 f63c 643b 123b
ce59 b1bb ed9b 2abd 4e0f b33b f2d1 35bc
38af 00bb 46c3 b13b 18e4 4d3b 8d2c ab3c
24ed 9d3c fa70 3ebc 0bf2 08bd 0211 8c3c
e999 203d 9ed8 f2bb c789 853c b0a6 9e3a
d05d c43b 63d6 8dbc 6a77 023c 9819 193d
7146 2dbc 5bda 073d 4263 f63c 2da1 af3c
a26b 32bd 25e4 2bbd e1cd a23c 9586 9e3c
a353 ecbc d555 0d3d a3c0 c13c 128b b9bc
0075 193d 7c1a dbbc 78ce 923c bbcb 0b3d
7cf5 5cbc 2bd5 30bd c3eb 8b3b 8251 babc
8fd5 053d 0a44 b3bc 2f9a 053d dd7d 253d
2005 463c 80ec 1c3d 041c 9e3b 2d44 a13c
b191 aebc b966 2e3d 03a6 c7bc 8992 e8bc
6e12 333d 72a6 36bc d942 a83c 0785 0bbd
325a 71bc ab1d 003d 3a65 a43a 9ad6 38bc
d792 0a3d f9e2 2b3d cf21 cbba f68f f2bc
2b3b dabc dbfb 003c ab3f 073d ef60 813b
af37 8bbc db3d 8cbc dde9 2cbd 1473 16bd
4735 813b 94fc 16bd bc16 023d 2917 22bd
ebaa 0bbd caaa bebb 8d2c ebbc 751c e63b
a0ec d03c c78c 53bb 338c 4abb 52e1 34bd
8372 01bd f0c3 d63c b8bd d33c 1122 a5bc
9f0e 033d 916c e33b e372 0fbd aee9 febc
ef9b cc3c bf38 093d 698d e03c 5ccd 1e3c
b16a 28bc c0f0 143d a83f 15bc c04d 123d
6118 6a3c da80 bfbc 2297 31bb 3c02 debc
338b 07bd d292 7f3c d2a1 303d 2268 7d3b
d24d bebc 53b3 043c b3e1 023d 2337 41bc
95af 27bd f09a 1f3d 4472 193d 876d 65bc
ca69 743c a52f 2ebd 8a52 7b3c 7ce7 16bd
de36 35bd 8f52 063d 1748 cbbc 318e a03c
5bba 04bc b07d 10bd 0507 2ebd 024f f03c
8afb fc3c 36d4 b03c 5ce6 1e3d 1369 07bd
07d5 86bb 30f2 803c 7e2c b1bc 5432 763c
43af b1bc c470 93bb 4dd4 84bc 2a65 debc
93cd 093c fa4f b7bb 3bcc cdbc 0309 043d
5ed8 713b 9c15 d43c 5937 2cbd f33a 8a3c
9f72 03bd a59c 20bd 20e9 1bbd f36c 8a3c
9a52 913c 7e91 f7bc 9231 ba3c 98c9 9dbc
8ec6 05bd a36b 4b3c 01a9 213c 2007 173c
ecac 933c 758e 6cba 0e1f e6bc 3787 013c
c6d8 003d f4a0 12bd 307e 12bd de8f bbbc
9c30 1cbd e389 873c b32d 473c b9ce 253d
5954 233c a98a ee3c a646 bf3b 6dac 2abd
2272 33bd 115b a83b d910 283d 549e 14bc
bbd8 cdbb 0e4d 30bd 80b9 98bc 8406 13bd
902f 90bc 461d 7cbc 7c64 57bc 95db e8bc
127d 8bbc 505b 90bc 0b90 803c ae9c 36bd
d0b3 14bd 3e4e bbba f7eb 043d 462d 71bb
d981 2a3c 330e 063d 9b52 0e3d 1065 9e3b
e6f2 743c 1655 b4bb da49 173c 4ef2 7bbb
0c9f 1a3d bf4a 46bc a6bc bcbc 12e4 ff3c
83ff cf3c 3106 26bb a5cf 5bbb 3482 143c
a0ad 81bc e56c a93c b4ba a73c d7a0 003d
4f35 0ebc d82d dfbc 44b2 ff3c ddfb 0e3d
cab8 ed3c 3d5c 28bd 1cfc d13c fe9d f5bc
7310 0fbb f58b e2bc afa1 74bc 9ece bc3c
e605 36bd be59 f7bc c516 223c d651 ee3c
41b4 1abc 1ac3 f5bc 1020 1d3d 91fd 283c
570b 5ebb f3cc 0b3d 8d10 a6bc 9598 afbc
6326 89bc a9e6 a7bc dce3 94bc 4b7d 00bd
9787 4fbb 1127 20bc 4a37 32bd 4797 c9bc
ee01 3cbc df8d d33c 2079 b13c a8d2 1a3d
97a5 cabc f768 853b 7f82 84bc d825 98bc
7592 e33b d1f8 6e3c 3cec 903b 9767 ccbc
0c02 97bc 80be 133d 5da5 adbb 5547 2fbd
9bc0 04bd 2880 9dba 4a12 b43c b7e5 b03c
923f b73c a88b d9bc 334d 083c 352e 22bd
a603 2cbd 063b 76bc 5622 f13c c5ad 263d
94bd d43c 83d2 0a3d 7aa7 1d3d d160 e6bc
c465 193d 77f2 c5ba d1cf 20bc 4d1a ad3b
0491 97bb 44b5 92bb df22 093d 2704 083b
3e14 f4bc cfdb 853b 7933 e9bc 37a2 a43b
d3f3 06b9 7b67 0abd f237 bebc 0732 8439
7f0d 8b3c a0e2 9a3c a865 d73c 5460 163d
5c8e 2dbd c05b 583c 39d6 6a39 0177 21bd
caa2 37bc a495 9d3c 2974 2ebd 9fd8 0b3c
fc56 933c 2afe fa39 def7 32bd c823 d63b
9727 c63c 28fd ddbc b82a 9f3c 9332 8ebc
a937 27bd 3b9f 883b 21f1 f53c a60d fc3c
e311 023d c242 01bd 9694 b8bc eed9 f13c
131f cbbc 51e6 ef3c 5a96 71bb ef67 043d
99cc e5bc 688a 143d 51c5 e83a 0686 b63c
7455 d03c b01b d8bc dd9b 20bd b488 d53c
b1de ea3c f451 1bbd 9f92 063d 8d87 20bd
5e35 1e3d 512a d43c 6bbb 823c 035c 0b3d
8534 093d ab07 08bd 567c 7b3c f3d0 ca3c
78fe 5cbc 82d8 303d df87 8dbb 265c 6bbc
0eba ec3b 11b2 26bd 5c0b 5dbc 3c07 59bc
3992 2d3c 361f b1bc f9e6 a23c daa3 753a
cf73 8ebb 7d74 253d 7dd4 eebc c64c 053d
7927 ab3a f230 3bbd db52 0fbd 39d7 2ebb
4acd 32bc 2f74 263d e1a8 2dba 923b 303d
1f59 41bd 4c1b 18bc 7bb7 c539 3ac0 36bd
50e2 3abb 99c6 2abd b918 223b 9767 0cbd
2504 2f3b a4ab 113d c67e f23c be06 b03b
9641 e73b 0206 38bd c1db e4bc 040d 54bc
158a e7bb 4e3a 30bd 2ee9 7cbc 5870 16bd
649a d7bc 7fe5 40bc b1c6 e13c abce 44bd
1051 d9bc 1d67 e43c 5e87 f2bb 8a7e 7cbc
ee3e 36bd 1cfd d5ba 5a8c bb3c 403d db3b
087a d1bb 27e4 04bd fec2 b3bc 9aee 34bb
b874 9bbc b56e 2a3c 2227 733c 26bb 36bd
19ae 6cbd 3c95 12bd 7cbd 9dbc 98c1 d6bc
f3af c33b 8ddb 2bbd 1194 ebbc 7bc3 c3bc
07da 01bd 159c a43b 4092 89bc 25bd e5bc
7b67 1f3d 92f9 b13c d8c1 973c 78ba 9fbc
a397 0c3c f0ac 1e3d 4a64 37bc 7379 0a3d
b713 0e3d 7ac5 32bd 8dae 26bd eb51 453c
cefe 3bbd d729 0fbd 03f9 203c a5a5 2bbc
03d2 c83c 7b78 c3ba 3b59 03bd 6675 f23a
3c19 163d 4c23 5fbc 6cc2 1e3d 09be e7bc
6b15 cdbb 0379 823c 8981 afbc dd9e 2cbd
8140 283d 3791 003d afe7 0fbd f48f d93c
5bc6 02bc 26e9 66bb 28d0 58bc e66e cd3c
036f 8cbc f9fb eb3c 2f1d 05bd abce 04bd
a637 f53c 57bc 013d 8851 1ebd ad67 2abc
9146 a13b b0c5 ddbc e7ab 843c 9c2f d83b
4159 e73a bf0b 843c c374 4a3c 424a 2b3d
2054 1f3d bfe2 cebc 15ee 27bd 911b 243d
1410 da3c 900b 163d 0efc 303c b4a8 183d
2a17 92bc 86b2 793b 4760 0ebb 3944 213d
854f a43c b795 09bd 7469 95bc dd0c a3bb
e0c1 94bc 99ab 62bb 118e ac3c 2f32 0ebd
b673 3ebd 72e3 30bd 881d 163c 1134 62bb
0a5f 7b3c 041a d6bb 3768 823c e7fb 253d
2097 58bc 4e9b fd3c ec46 1abd 3b5c 8f3c
b2ca f1bc 8798 0e3c 6285 753c ac25 1cbd
22dd b6bc ac6a 9dbb 70fc 173d 6b6b 873c
11d5 493c 6be1 04bd 48ad 96bc 07db c5bc
a3d9 013c 6bce 43bd f286 f5bc b1d6 98ba
86fc f5bc 4a2a 303d 8949 003c bf8f 873c
dd91 eabc 0b29 04bd fc77 5a3c 0f60 0abd
8b0c cfbc 2d97 20bc 378a 0d3d 2c6a dbbb
1414 01bd dca0 9bba e57a 063d 5d57 e1bb
c7d4 45bd 7a12 fbbb a307 0b3d 8b7a 853b
520e fabc e5d0 e9bc 6353 303d 05fb 163d
95e7 263d 93f4 0fbd b27c 3ebc bc83 d7bc
dc61 d9bb 88e4 d2bc eb05 c13c c7c9 4bbc
8cdf 993b 22d7 773c 70a0 1ebd b0a6 debc
8f77 04bc 5e3e 7abc 83b2 47bc 8544 6abc
75a5 243d 272b cebc 94a3 103d 6422 923c
90e8 9fbc 4da4 2fbd baa2 7d3c 7151 e73c
756e 29bd c0ca 123d 4783 043d 4b5c 49bc
9862 d1bc 6174 633c 941e 153d 51b1 633a
52bd 3abd 8212 bfbb 9c15 94bb 4f2f cf3c
8684 703a 41f6 ea3b a7b8 2b3c 713f aab9
f3d0 0a3d faac 34bd f608 bcbc 07a5 0e3d
c1f3 e03c 2871 d3bc adc6 6fbc 3c80 de3c
38a0 da3c 3052 11bd f176 27bb 8702 8e3c
0491 973c 86cc fd3b 844d 1cbd c882 9b3c
dde2 a9bb 235f cbbc a267 fbbb a65f ff3c
1d27 28bd b4fb dfbb c8a7 193d 47ee 87bc
31ce 263d 54d7 173d 482a d73c fbf4 013d
6b3b 8f3c b16b ec3b d2f9 f2bc 7c0c 953c
6741 c3bc 99cd 2d3d 207d 943c c374 0a3d
4f98 0a3d 8a96 b8bc b90a debb ad9e 25bd
1bc6 41bc a884 163d 24e5 963c 1e73 2cbd
0df3 253d 91de 69bc fd98 21bd a873 1dbd
2ce1 dcbc 82e8 febc 2bfb 873c 7736 c3ba
7d03 63bb e753 023c 3665 36bd 713f 2abd
d1a7 ef3c bcc0 debc 39ed a2bc b0a6 5e3c
0991 223d a410 563c a0fe fabc 76ca bbbb
1e55 f13c 3718 c7bc e76c 42b9 ce14 b0bc
2187 23bd de4a 3a3c 83d0 02bd 9b57 c93c
bcf3 d53b 4a9d 3abd 9498 16bd aff7 c43b
8095 9ebc e9ad 65bb ebaa 4b3c df3b 09bd
3cea 883b ff7b c3bc aebc f9bc 1aca 38bd
0922 e8bc 60dd 9e3c 2cdf 14bc 5951 003b
606a 5439 8b43 8aba 7e5a ba3b ce0e 81b9
20da 113d a0f6 1fbd c085 113d 21a9 6ebc
6155 243d 36c8 72bc 565d bc3c b01b 18bc
4741 0fbd b3db c33c febc 343d acc6 963c
4173 2b3d 67ea 14bd 832f c8bc 8b5c 8a3c
97f0 0a3d 742a 133d bff4 8b3b 0cb3 1f3d
d7ef 87bc cd20 ee3b 51d0 62bc 0bcc c6bb
85ad 25bd be4d 39bd 5c3a 11bd 68b2 5ebc
383d 9ebc 1813 98bc 75d5 ff3c 7b21 85bc
9b39 ce3c 1dc3 673c 0b05 0a3d 80c6 1a3c
3bea 08bc d1f0 27bd c769 823c e034 1f3d
628c 383d 3c51 15bc 28fa 113d abaa 0abd
153a ec3c 574d 873c ef57 8f3c 3074 9c3c
b99c 653c 8eba a4bc f2eb 39bc 7ac5 f2ba
7215 313d 8d4a 26bd 4d2a e23b 2d7b adbb
416d ecbc 5409 183d 8992 a83c a7c5 873c
1983 af3c 1024 d4bc 3830 dc3c 5825 16bd
34ce 58bd 0132 20bd 03f7 133d 02f8 27bd
abe7 44bd 9881 d0bc 1c53 903b 9545 a83c
7580 26bc 115c 6cbc 50f3 183d 69df 2d3d
c0ff 1ebd c617 ffbb 3ed1 7abc 0e82 fcbb
13a0 c23c 76ee 35bd e94f a4bc 8656 fabc
d3b5 0ebd 860f f7bc fa28 81ba 5f17 8d3b
7f39 8c3c dd07 e8bc 981d 103d d14d 253d
5f6e 0b3d 691e a6bb ccc9 963b c6f8 3fbc
3931 e0bb 798c ef3c 31a7 e03c aa6c 733c
5cef 00bd 9f56 003b a110 e4bc e5f6 2b3d
9cc3 96bc d42c 80bc 80e3 91bc 1147 ed3c
463d 3fbd 009f 923c af22 c2bc 0ca0 deba
73db 82bb 85a1 27bd add0 e53c 10df d2bc
bb9a 4f3d be1a 35bc 1d20 253d d4ab d8bc
e621 63bc afad 083b 113c 29bd 781a 90bc
429a 31bd d4f1 1d3d b2a0 38bd 3b6c 843c
f4e8 5f3c 2cad 14bd ef54 43bb 4e96 20bc
858d 22bd 9a08 39bd cf25 82bc 8c32 81bc
f476 d9bc 9159 e2bc 173d 973c ea7e 31bd
424a f63c ef0b 0bbc e8be 1ebd 68bb 10bd
a799 463c bdbb af3b 9b9c ca3c 1a72 b63b
cd9d 2ebd ee8b febc b143 22bd d0a6 523c
ed52 223c 05e5 22bd f6cd 30bd 2dca a43c
f43e 1abc 6116 a23c 4f9e 4939 c0cd 1e3d
c77f 0f3d b314 07bd 7000 b4bc 3823 9a3c
5a39 34bd 70b7 163d 44ca 1b3d 860e 33bd
6f0a 2fbd 724a fdbc 9b70 c9bc eb60 0fbd
2fda 0bbc 763f 353c 8c9e d83c 10fb debb
124d bbbc 3b7f 053d 780f 963c 86aa 32bd
a24f ffbc b0c9 94bc a09d 593c 4722 003b
8486 1fbd 70aa 94bc 70b9 1e3c 5e84 ff3b
a75a 843c 041b 1abd 3b66 233d ee2d 3dbb
5298 bcbc b8d6 133d 0276 f63c b95f 2b3c
b178 6ebc dde8 e83b a833 17bd 62de 3bbd
a8c3 d83c aedc fcbc c844 ddbb be75 c83a
6afc f33c 2b91 08bb 7131 243d de2a 37bc
af02 e1bb aa23 3bbd 3580 25bc 6d55 2cbd
4f7d 023c 7f39 0c3d e71b 833c 54b9 dcbc
479f d2bc c506 2dbc 0536 22bc 7b72 043d
a131 ab3c bb86 0abd 8062 da3b c539 013d
9d79 edb9 0f0f 0bbd f41d 133b 4c47 d9bc
3a9c 1dbd 0a7d f6bb cda3 6dbc 9031 d8bb
3803 57bc 675c cb3b 19fd a3bc d8b3 91ba
0c42 1dbd 738a 83ba 638a c93a d40d 11bd
550c 243d 3405 14bb 1b5f ceb9 118d 28bd
6236 be3c b8aa 523c b873 573c ac6d 103d
d710 cfbc 940d 10bd 74db 1bbd 5d3a 2abd
4129 ef3c 6a14 703b 8cc3 163d 8588 a73b
6975 e43a f178 6f3a e492 123d 086a 9cbc
fa89 be3c 1091 9fbc 1d20 e53c 71cd e3bc
747d 9a3c 3506 013d 84ab 5d3c e5ec bdbc
19ec 2abd 20b0 1f3d 6a8d b939 4458 55bc
c7e7 c6bc 2f94 86bc 5a00 31bd 7f26 0bbd
5bed 483b 8e67 763c 7f20 8c3b b6f0 bebb
54ef d3bc d818 163d 569f f13a 3249 b8bc
7177 e93b 5017 933c aaac b93a 7730 443c
6db7 a4bc 6fff 8a3c a85d 103c 90c4 553c
6607 7c3c f0e4 5d3c 593c e73c e085 9ebc
9791 c53c 8d07 adbb 2c36 93bc daca 7bbc
506f d53c 42f5 bfbc f9fa 27bc 47c9 893c
aedb 383b 4bf3 0dbd a793 87bc b7cb 40bc
6c5b d2bc 45a1 2639 0eb1 30bd 1a78 f5bc
ef2a 0a3d b9c7 223d c0ae 9fbb cb22 043d
ff00 4b3c 10f8 123d a1b3 e63c 4ee0 7e3a
b366 4a3c 117b 2bbb 07f0 8e3c d36a cebc
d005 d8bc 0716 813c 1baa ce3c 0099 93ba
5bb4 053c 486a 1dbd 950e edbb 2b6b 863c
2773 02bd dc81 dcbc 2e52 38bb d357 0d3d
b3d4 40bb 2b70 013d 2fd4 8c3c 1f6e 0a3d
914d 243d 5a91 763a 8902 67bc c72d 8c3c
d6f1 f6bc 9dc8 243d be1f 80bc e2b8 bb3c
167a d93c ddf3 22bc 740d 9cbc 13ec 06bd
852f a1bc 97ac cdbc 52e3 3c3c b978 ebbb
ee0b b2bb 8123 013c ae01 22bd cc72 18bd
19f2 293d fba6 0e3d dfa0 0d3d b679 bd3c
399d 27bd 346b 1c3d f339 c63c afb4 0bbc
f692 3eba e4b7 90bc 62c8 e83c b670 32bc
472c 46bc 1766 c6bc 0cfb d3bc 084f 943c
73dc 063d 63c9 0b3c 6c4f 143c 0f14 46bc
be8a 33bd 58f8 103d 96ec 3abc 650a 2fbd
d832 1abd 32ad f8bc de45 bf3c dc11 1ebc
54aa d8bc ad3f a03b a77b 0bbd 3cbc d8bb
395f a9bc e312 063c d317 073d 6d27 23bd
60ef 1b3d f0b8 9c3c 1d7e e6bc 105d 173d
c13f 25bc bcf2 913c a5db 223d adbd 243d
d8a0 903c 2f6e c43c e4f7 163b e36b 0c3c
6460 10bc 978b 863c 4d2b e6bc 129e 3abd
d29b b13b 4a2c 38bd 58f5 9d3c 13b9 823c
99f8 2abc 0d30 20bd 3e6f 69bc ceba bebc
feed 00bc 27ab 813c 832e 043d 7269 7c3b
5e55 b2bc d89a 51bb 471e 403c 1b9b 043d
045f 573c bc46 9db9 e25e f13b c47f dd3c
6b09 0f3d d5a9 a93c e0d4 553c 6929 20bd
b5a0 eabc f35a 4d3b ba8d b43c 4cb8 1bbd
6652 3cbc 32f8 b8bc 9f87 ccbc 53c5 c13c
d521 2fbd a7a8 3cbc 9d2e ad3b 464e 38bd
6768 09bd 8d24 a4bc 6ad0 b23c 2f2f c2bb
a118 6b3b c413 963c 8e30 fbbc 984c 9d3c
ba9a f63c 69ba 25bd 78dd d4bc a119 af3c
cbfe c9bc 740a 103d d0f7 513c 062d 703c
253b 2abd 2fc2 4f3b 0419 12bd 07a8 413b
a51f 20bd 7824 df3c 5a27 b73c 40c7 9d3c
9fdd 863c 4a2c f83c 3f82 03bd 64dd d03c
53da 8abc 08c5 513c df35 4abc 7df3 6d3c
5fc6 8d3c 2f23 043c f381 18bc 1af5 f53b
3adf 35bd 672f 46bc 5cae 9f3c 7d82 6bbc
8ca6 1fbd 36ee 34bd 256e ae3c 0c99 9b3c
a787 893c 6cf4 1e3a 91e4 e83c a877 143c
519b afbb 0f29 0fbc bfdc 8fbc b32e 4bbc
93ac 023d 1716 4bbc 9911 ebbc 8088 9cbb
cf52 07bd 2883 d03b 6a8e bdbc b177 ea3b
4824 983c 01f0 6abc 9087 923c f3aa 883c
9a96 32bd 9676 bdbc 466d b7bc 5786 0abc
0a53 3dbd 410d 233d be64 b13c b810 1b3c
2136 a4bc cb5d 0f3d cf0e 0abd e1f8 e8bb
90ad 94bc 94b6 113d 846a 133d 6d20 20bd
bf05 453c b559 e13c acc7 1abc bc69 d33c
4bbb 0ebd ed4f efbc 1efb ff3c 3633 763c
1cd3 dc3c f65d f23c 3170 25bd 33dc 853b
9c08 123d d2d5 f8bc 2130 e5bc 421f 39bd
47e2 893c 6d1b 25bd 1cc7 1e39 541c 993c
c92f ad3c e8bb 52bc fdea a43c 4952 a13c
1df7 2f3c b7cd 083d 842d d93c 44c4 dcbc
1b8b 0f3d 5c68 1abd 4d27 afbc 499e e53b
9d6d 6f3c 6015 5ebc a542 ef3c a292 38bc
641c 13bc 5c43 9cbc b794 053d 4bf7 043d
91d1 27bd cdbf 20bd b3d5 843c e54b e23c
6a4e 37bd 1693 f2bc 7bfe ce3b cafb bd3c
3b80 c9b8 5260 fdbc 5370 8bbc 2fa9 0f3c
74b5 d93c f5d9 aebc c949 813c bf01 4e3b
c5cb 21bd 8856 d93c 0f14 063c 631e c23b
44cf 16bd 61ea a03c 367e 36bd 292b e7ba
bf3e c83b 7361 0ebd 6b21 4bbc a56a e03c
4269 b53b 8343 4d3b 3692 fbbc d790 823b
8f54 ce3c 7c97 db3c cb5c 0b3d e45d dfbc
54b1 153d b346 c7bc 515c ed3c 44c9 97bb
3730 033d c10d 65bc a7df 0bbc af80 033d
faff bbbc 885d 5cbc 56b5 3ebd de8d f33b
baf0 30bd adfd 2abd 31c9 abbc 72d1 b3bc
2cc5 103d 24c5 93bb 2e9d 783c 5ba9 8b3b
613c 64bc 7f0e 0f3d 112e e3bc 0b95 cbbc
b032 d03c 9daa 29bd c4c8 153d 216f 273d
b31b 0abd 0678 30bd cd3f ed3c 64fb 0bbd
5582 213b 22a5 f7bc 640a 96bc 2799 043c
d532 e83b f618 31bd ca70 b73c b587 2a3d
4a9c 763c d2b1 3ebd a8fa 13b8 87a8 c3bc
5f3c cb3b d04e 903c 5a97 81bc e2fa b03c
f410 11bd f9c3 acbc 2ca2 da3c 9d0d e63c
84af 943c d206 f53c 8992 283d 416d ac3c
5d4e ef3c 03ae cebc 9909 243d 1924 2a3c
e6ae b7bc 7a10 33bd 4db4 24bc b189 e73c
64f7 143d bff2 033d 51b8 a6bc ea49 be3c
3d69 2a3d c5ec a8bc 0119 a0bc e06c 9e3c
d3ac 83bc bc08 9fbc 724d f03c 04bd 983c
bcd6 b2bc 0011 19bd 7b34 0637 b244 3fbd
03cb 453c ae18 f33c 3fff 833a 20bb 52bb
6325 c5bc d7bd c73c 68dc 973c beea 3cbc
5b1e c5bc 466d b7bc 51bd a1bc 679f 043d
2092 1db9 f111 233d a9db adbb 7628 fdbb
baf3 3cbc 5b78 4f3c 1786 c9bc d2a5 67bc
709e d6bc be0d 733c b364 02bb d99a 2abd
aa4e 9f3d 16ce 703e 8157 223d 3789 3e3d
0cef 173d 0134 8c3e c04d 0abd c7f4 1abd
73a7 c73d 0718 943c 7932 f0bc 0fdc a7bc
4315 c73c 5610 0d3a 4b24 893c 8859 303f
af48 983d e4bc ba3c 009d 0a3e feea 34bd
3a3a 91bc 1e32 c73d ba54 e53e bce7 f73d
201c 813c ab55 293e 0364 213d 6901 d23d
0c40 b6bc 2312 3d3d 1c70 b83d a97d 6b3d
e92b 563c a170 ea3d a134 573e 942f b13c
e84a 123d 69ba 933c c394 7a3d 2032 da3c
f1cd b33d c6b8 8b3b 4339 433d 398b e13c
9ffb 933d 21b8 1d3d 58dd 983c 225d 97ba
4c9a fd3e 34e6 d03c 130f 8f3d 3ddb 89bc
17f6 cbbc c526 e33c 061a f93c 589a 083d
f7ce 113d 50ee 05bd c1ee 0a3e c7b4 433b
88d6 313e 1433 a23b 21af e1bc 16fa 4c3b
fff3 603f e72a 4e3d 4855 ca3d 283e 81bc
0f1a d33d b333 c73d 73a5 b23d bd52 2fbd
3c0f adbc 4e93 89bd 41fd 1b3e 9da1 73bc
b80d 023c 8e15 4b3d 81a6 c33d 6259 473c
8707 7cbc 291d 953d 6ec1 8fbd 2006 9bbb
3130 163e 0625 823e d21b 923d 14c1 273c
2a4f a3bc 16ed 4f3d 11f0 813d 7e6b 62bd
538e a43c 372d cf3d 5d73 043e ccce 13bd
80e8 4c3d f913 883d b660 3e3e 60c0 9ebc
0cbe b7bc 3297 4a3d 429b 183d cf95 d3bb
3fb5 3a3d 1917 c23c 8b94 983e dd9f 1c3d
8f55 403d d270 463d 8853 a43d b8d0 e53d
3ab7 483d bee8 e73c 6ee5 c23d 46c4 acbc
24a2 c5bb 84e7 1b3d 97ed 4d3d f0ac 0b39
45fd ffbd a85d b33c df12 27bd 3fb8 233d
5b94 d6bb dfa9 183d a883 963d 8c26 193d
9de6 bc3c 0a29 8dbc 3a33 9e3c 5963 5c3d
5412 dcbc 244c 9c3c d14d a7ba e79b 033d
f3bd 8e3d fe76 e73e 09a9 be3d 8f29 ca3e
edde 8a3c 12eb 123d ca7a e93d 6cc1 aebd
94b0 0c3d 707e d1bc bc10 8f3d 46b6 863d
b0f4 4c3c 6ae1 513e 532b 813d 6957 17bc
9de6 153d 26b6 cc3b 23c2 2c3d 1d55 683c
706d f73c d525 9b3d cc1f b5bb 322b be3d
8a8e 9e3c 7a3a cf3d 09a1 99bc 63d7 d5bb
f089 883e 7e85 b73c 6b2f 833d 9bba dd3d
2b21 663c 67e4 c13d bc8c 67bd 0f53 18bd
08ee 3d3d 75a4 4e3d 8aaf 21bd c41d 1f3d
851c ef3c 9fb2 aabd bc9f 8a3c 3518 263d
0806 873c 1fe5 873d 7c17 003e d895 993e
123a 85bc 8828 7d3d 03b6 013e f91f db3c
de71 003c e694 8fbc 1e52 003d 75c3 1a3c
015b 2cbd af3d 4d3c 786e 4c3d 092b e7bc
a27e b13d 22eb 263c 3e7a 623d 2516 d03d
a286 6b3d 1381 4f3e bc12 753d cc23 483d
e70c 763d af4c 9a3e e872 20bc 34ad 1cbd
c092 f8bc e857 a2bb a90c 4d3d c128 aa3c
4874 c23d 62e5 4dbd 0d1b b03d 8108 803d
856a 0bba 4840 103e 1e44 683d b7c3 0b3c
6088 043d 9870 053c 60cd ea3d aa6f 023d
97f8 3d3c 42a8 89b9 738c d93c 0daa 723e
13ac 483e fbd9 013c 86c0 9c3d 8102 6a3f
6abb 2d3d f5aa e53d 8e9d 843c d2c8 1a3d
5e08 1f3d a370 ad3d 45f2 43bd de17 9d3d
438f 88bc 25d6 253e 3f87 2e3c e434 a03a
1dfe ae3d 8b85 bb3c f7a1 353e d6a2 ff3c
b0d8 aabb bb28 253d 3f7c c63d 65c3 e0bc
05ff a23c eeb2 6e3b 8250 403d b60f 263d
95a3 ed3a 6b70 2c3d 1847 d83c 4475 353d
2261 0abd 9999 133c 0d3a 413c 9573 893d
3de8 26bd 128d 88bc 6113 133d d12d 743c
b0d5 003e e78a f23c 0f9b 493d 48d8 c9bc
08a8 163d fbdf e43b 4a99 c7bc 8b3f 4e3d
daab 83bc 60b6 1d3d fe8b 343c d370 443d
a47a 753d e988 fbbc 5714 7d3c d5ec 213d
a625 ffba 42e0 a63c 56a7 b2bc 00b9 c6bc
9b38 913d 9ae9 4a3d f174 ddbb 6d3d e7bb
177a e83c a3bd fb3c 3c13 153d 9cfb 6e3d
1c38 f83d 50da 923d 985d 6cbc 21cc 7c3d
e543 adbb 003a 3a3d c7af f2bc 05fd 373d
39c7 9b3c 7ea8 0e3d 45ad e83d 3367 183d
ac77 a83d eb8e dd3d 58b2 07bd 4815 5c3d
8a9d ab3d 1f42 be3c ffe9 143d db34 ac3d
8212 57bb 3d15 bfbc 0286 d5ba bc7f 8abd
9f6b e5bc 5c3f 6c3f 13d1 ed3d a70e b63c
b13e b3bb f63f 7b3d 6c1b 63bc 915a ffbb
9bb1 7a3d 9ac9 8c3e 4506 e73d 4e1f 923d
27b5 ba3c e43f b73d a3ce 883c 77a4 053d
ea32 75bd a494 d53c 9582 4c3c 0587 023e
c176 533d f86a 2cbc fb49 593d e8eb 0f3d
cdfd 063d 6176 0c3c 3ae1 80bb ed01 8b3d
ab09 833e 8dce bbbb 7280 f33d 9a78 de3c
3369 6a3b 3830 b23e 0525 f5bb 7e85 9a3d
f89b 283e 35b4 533e 154f 133d d7e6 70bc
e058 783d d069 e23d e3b7 2cbc dc8c 283c
3ce3 c9bc bb5a 093c a5ef da3d 3afe 093d
6b61 7f3d bcc8 6b3d e6c8 3fbb 0cb8 883c
0d54 7bb9 153e ec3c e1da 033e 2170 ec3a
ddff 1cbc 2463 02bc 6d5b b93d f360 823e
2e12 643e 591f 103c d23b db3e df2e 833d
0126 973b e2a5 68bd fb01 c13c 8b4d 1abd
6592 963c 6603 23bb 663f 09bb 199f a2bd
6e20 aabb 21e4 b83b 6ca9 b13d 0c64 283d
046d 313d 6644 533d bb1b 1f3d 2d93 29bd
735a 773e 9f94 cf3b 9664 c93d 335d 803d
7aff 1b3d 9cfe 523d 8f02 283d 7215 0cbd
348a f83c 5061 813d b03b a4bc 39ff c13d
6811 223d c630 c63d adb4 cc3d d57f e93c
272e ca3c 9c53 a23c 8c09 8d3d a07a 663e
6161 9abd ce11 cc3c 02f5 093c be3e 8f3d
d43b c93d 334c e63c 9435 dcbb b075 d43a
5cee 6abc 3421 003f e265 8a3e 1dba d83d
78b3 a33d f95b 9e3c 7672 00bd 4590 353d
d406 073e ed67 123d be42 2ebc 87a9 9e3c
eb4b 053d c584 823b 072a ee3d 5b60 cbbd
6b2e 943d 1c58 973c d773 a1bc d8ca d53d
f2ba 8b3e acfc 083e 38ca 8a3d 84f4 98bd
ae0e 283b 236d 593e a245 b0bc 5f83 103e
47d6 413d 8ad9 d83b e25e a63d 65e4 aabb
a733 70bc fadb c5bc fc87 143e 4587 6bbc
6ec4 a33d dd0f 6cbc ec22 09bd 2fad 443c
7b7a 173d 4a28 d93d 3661 c63c 8c4b 163d
e6fe 0ebd 6992 0bbd ed69 8e39 51dd 243d
39a6 933b 6529 ff3c ff8e 743e a45d 673d
7042 7d3d f71f 0f3e 8efe 853d d6f5 b93d
0535 bebc 5b28 7e3d aa73 1f3e 0464 0d3e
16b2 1e3d ffe8 2cbe 8f6d 2cbb 066b 84ba
10ec 143d b0be eb3b 436c ca3e 894a 35bc
6a83 3fbd 6b2a e43b b26a 4cbd bf2d 16bc
a07f 803c 3bc8 9f3d 1a7e 84bc 5288 443d
c53f a9bc 1197 713d f90a 3d3e 63ae 283e
64c4 943d e261 a7bc 4a44 a53d adcb 153d
ba8e b8bc cada 763d 3a4b bdbb d27b cc3b
4184 24bd 69f2 24bd 600f 9fbc d119 17bd
a614 3fbd e721 823c 93fd 81bc c7c7 83bd
1fb8 81bb c0d0 913c 4b73 c1bc 040e 18bd
